{"version":"1.0","truncation":null,"padding":null,"added_tokens":[{"id":0,"special":true,"content":"[UNK]","single_word":false,"lstrip":false,"rstrip":false,"normalized":false},{"id":1,"special":true,"content":"[CLS]","single_word":false,"lstrip":false,"rstrip":false,"normalized":false},{"id":2,"special":true,"content":"[SEP]","single_word":false,"lstrip":false,"rstrip":false,"normalized":false},{"id":3,"special":true,"content":"[PAD]","single_word":false,"lstrip":false,"rstrip":false,"normalized":false},{"id":4,"special":true,"content":"[MASK]","single_word":false,"lstrip":false,"rstrip":false,"normalized":false}],"normalizer":null,"pre_tokenizer":{"type":"Whitespace"},"post_processor":null,"decoder":null,"model":{"type":"BPE","dropout":null,"unk_token":"[UNK]","continuing_subword_prefix":null,"end_of_word_suffix":null,"fuse_unk":false,"vocab":{"[UNK]":0,"[CLS]":1,"[SEP]":2,"[PAD]":3,"[MASK]":4,"!":5,"\"":6,"#":7,"$":8,"%":9,"&":10,"'":11,"(":12,")":13,"*":14,"+":15,",":16,"-":17,".":18,"/":19,"0":20,"1":21,"2":22,"3":23,"4":24,"5":25,"6":26,"7":27,"8":28,"9":29,":":30,";":31,"<":32,"=":33,">":34,"?":35,"@":36,"A":37,"B":38,"C":39,"D":40,"E":41,"F":42,"G":43,"H":44,"I":45,"J":46,"K":47,"L":48,"M":49,"N":50,"O":51,"P":52,"Q":53,"R":54,"S":55,"T":56,"U":57,"V":58,"W":59,"X":60,"Y":61,"Z":62,"[":63,"\\":64,"]":65,"^":66,"_":67,"`":68,"a":69,"b":70,"c":71,"d":72,"e":73,"f":74,"g":75,"h":76,"i":77,"j":78,"k":79,"l":80,"m":81,"n":82,"o":83,"p":84,"q":85,"r":86,"s":87,"t":88,"u":89,"v":90,"w":91,"x":92,"y":93,"z":94,"{":95,"|":96,"}":97,"~":98,"":99,"":100,"":101,"":102,"":103,"":104,"":105,"":106,"":107,"":108,"":109,"":110,"":111,"":112,"":113,"":114,"":115,"":116,"":117,"":118,"":119,"":120,"":121,"":122,"":123,"":124,"":125,"":126,"":127,"":128,"£":129,"¤":130,"¥":131,"¦":132,"§":133,"¨":134,"©":135,"«":136,"¬":137,"®":138,"°":139,"±":140,"²":141,"³":142,"´":143,"µ":144,"¶":145,"·":146,"¹":147,"º":148,"»":149,"¼":150,"½":151,"¾":152,"¿":153,"Á":154,"Ä":155,"Å":156,"Ç":157,"È":158,"É":159,"Ë":160,"Ô":161,"Ö":162,"×":163,"Ø":164,"Ü":165,"ß":166,"à":167,"á":168,"â":169,"ã":170,"ä":171,"æ":172,"ç":173,"è":174,"é":175,"ê":176,"ë":177,"ì":178,"í":179,"î":180,"ï":181,"ñ":182,"ò":183,"ó":184,"ô":185,"ö":186,"÷":187,"ø":188,"ú":189,"ü":190,"ý":191,"ā":192,"ċ":193,"č":194,"Đ":195,"đ":196,"ě":197,"ğ":198,"ī":199,"ı":200,"ł":201,"ō":202,"ŏ":203,"œ":204,"ř":205,"ū":206,"ž":207,"ƒ":208,"ơ":209,"ư":210,"ǐ":211,"ɪ":212,"ɴ":213,"ʀ":214,"ʌ":215,"ʏ":216,"ʔ":217,"ʕ":218,"ʜ":219,"ʟ":220,"ʾ":221,"ʿ":222,"˂":223,"˃":224,"ˊ":225,"ˋ":226,"ː":227,"ˑ":228,"˘":229,"˙":230,"˚":231,"˝":232,"̀":233,"́":234,"̈":235,"̑":236,"̣":237,"̥":238,"̫":239,"̮":240,"̴":241,"̵":242,"̶":243,"̷":244,"̼":245,"͈":246,"͡":247,"·":248,"Α":249,"Δ":250,"Ζ":251,"Ι":252,"Λ":253,"Φ":254,"Χ":255,"Ψ":256,"Ω":257,"α":258,"β":259,"γ":260,"ε":261,"θ":262,"κ":263,"λ":264,"μ":265,"ο":266,"π":267,"ς":268,"σ":269,"τ":270,"φ":271,"χ":272,"ω":273,"Ё":274,"А":275,"Б":276,"В":277,"Г":278,"Д":279,"Е":280,"З":281,"И":282,"К":283,"Л":284,"М":285,"Н":286,"О":287,"П":288,"Р":289,"С":290,"Т":291,"Х":292,"Ш":293,"Ы":294,"Ю":295,"Я":296,"а":297,"б":298,"в":299,"г":300,"д":301,"е":302,"ж":303,"з":304,"и":305,"й":306,"к":307,"л":308,"м":309,"н":310,"о":311,"п":312,"р":313,"с":314,"т":315,"у":316,"ф":317,"х":318,"ц":319,"ч":320,"ш":321,"щ":322,"ы":323,"ь":324,"э":325,"я":326,"ѧ":327,"ғ":328,"һ":329,"ד":330,"ה":331,"ם":332,"ן":333,"ר":334,"و":335,"٩":336,"ڡ":337,"۶":338,"ॐ":339,"ૢ":340,"௰":341,"ಠ":342,"ಥ":343,"ෆ":344,"ั":345,"ฺ":346,"๑":347,"༄":348,"ო":349,"ღ":350,"ᄀ":351,"ᄁ":352,"ᄂ":353,"ᄃ":354,"ᄅ":355,"ᄆ":356,"ᄇ":357,"ᄉ":358,"ᄊ":359,"ᄋ":360,"ᄌ":361,"ᄎ":362,"ᄏ":363,"ᄐ":364,"ᄑ":365,"ᄒ":366,"ᄫ":367,"ᄯ":368,"ᅟ":369,"ᅡ":370,"ᅥ":371,"ᅦ":372,"ᅩ":373,"ᅮ":374,"ᅯ":375,"ᅳ":376,"ᅵ":377,"ᆔ":378,"ᆞ":379,"ᆡ":380,"ᆢ":381,"ᆨ":382,"ᆫ":383,"ᆯ":384,"ᆷ":385,"ᆼ":386,"Ꭰ":387,"Ꮜ":388,"Ꮩ":389,"Ꮪ":390,"Ꮮ":391,"Ꮯ":392,"Ꮲ":393,"Ꮹ":394,"ᐕ":395,"ᐛ":396,"ᐧ":397,"ᕗ":398,"ᕙ":399,"ᴀ":400,"ᴄ":401,"ᴅ":402,"ᴇ":403,"ᴋ":404,"ᴍ":405,"ᴏ":406,"ᴗ":407,"ᴘ":408,"ᴛ":409,"ᴜ":410,"ᴠ":411,"ᴥ":412,"ᴬ":413,"ᴱ":414,"ᴳ":415,"ᴵ":416,"ᴷ":417,"ᴸ":418,"ᴺ":419,"ᴼ":420,"ᴿ":421,"ᵀ":422,"ᵁ":423,"ᵒ":424,"ᵕ":425,"ᵞ":426,"ᶜ":427,"᷄":428,"᷅":429,"ḥ":430,"ṃ":431,"ṛ":432,"ṡ":433,"ạ":434,"ả":435,"ị":436,"ỏ":437,"`":438,"´":439,"‍":440,"‏":441,"‐":442,"‑":443,"–":444,"—":445,"―":446,"‘":447,"’":448,"‛":449,"“":450,"”":451,"•":452,"‣":453,"․":454,"‥":455,"…":456,"‧":457,"‪":458,"‬":459,"‰":460,"′":461,"″":462,"‵":463,"‶":464,"‸":465,"※":466,"‼":467,"‿":468,"⁂":469,"⁃":470,"⁝":471,"⁴":472,"⁺":473,"⁻":474,"⁾":475,"₁":476,"₂":477,"₃":478,"₄":479,"₩":480,"€":481,"℃":482,"℉":483,"ℓ":484,"№":485,"™":486,"Ω":487,"Å":488,"⅓":489,"⅔":490,"⅛":491,"Ⅰ":492,"Ⅱ":493,"Ⅲ":494,"Ⅳ":495,"Ⅴ":496,"Ⅵ":497,"Ⅶ":498,"Ⅷ":499,"Ⅸ":500,"Ⅹ":501,"ⅰ":502,"ⅱ":503,"ⅳ":504,"ⅶ":505,"ⅹ":506,"←":507,"↑":508,"→":509,"↓":510,"↔":511,"↗":512,"↘":513,"↼":514,"⇀":515,"⇎":516,"⇒":517,"⇔":518,"⇨":519,"∆":520,"∇":521,"∈":522,"∎":523,"∏":524,"∐":525,"∑":526,"−":527,"∗":528,"∙":529,"√":530,"∝":531,"∞":532,"∠":533,"∥":534,"∧":535,"∨":536,"∩":537,"∷":538,"∼":539,"∽":540,"≒":541,"≠":542,"≡":543,"≤":544,"≥":545,"≪":546,"≫":547,"⊃":548,"⊙":549,"⋅":550,"⋆":551,"⋇":552,"⋮":553,"⋯":554,"⌒":555,"⌓":556,"⎷":557,"①":558,"②":559,"③":560,"④":561,"⑤":562,"⑥":563,"⑦":564,"⑧":565,"⑨":566,"⑩":567,"⑪":568,"⑫":569,"⑬":570,"⑭":571,"⑮":572,"⑯":573,"⑰":574,"⑲":575,"⑳":576,"⑴":577,"⑵":578,"⑶":579,"⑷":580,"⑸":581,"⑹":582,"⑺":583,"⒜":584,"⒝":585,"⒞":586,"⒤":587,"⒦":588,"⒫":589,"⒰":590,"Ⓐ":591,"Ⓒ":592,"Ⓡ":593,"ⓐ":594,"ⓑ":595,"ⓒ":596,"ⓓ":597,"ⓔ":598,"ⓖ":599,"ⓘ":600,"ⓛ":601,"ⓜ":602,"ⓝ":603,"ⓞ":604,"ⓡ":605,"ⓢ":606,"ⓦ":607,"ⓨ":608,"⓵":609,"⓶":610,"⓷":611,"⓹":612,"─":613,"━":614,"│":615,"┃":616,"┌":617,"┒":618,"└":619,"├":620,"┤":621,"┸":622,"┼":623,"▆":624,"█":625,"▉":626,"▊":627,"▋":628,"▌":629,"▍":630,"▐":631,"▒":632,"▗":633,"■":634,"□":635,"▣":636,"▤":637,"▨":638,"▩":639,"▪":640,"▮":641,"▲":642,"△":643,"▴":644,"▶":645,"▷":646,"▸":647,"►":648,"▻":649,"▼":650,"▽":651,"▿":652,"◀":653,"◆":654,"◇":655,"◈":656,"◉":657,"◊":658,"○":659,"◎":660,"●":661,"◐":662,"◑":663,"◜":664,"◝":665,"◞":666,"◟":667,"◡":668,"◦":669,"◯":670,"◳":671,"◾":672,"☀":673,"☁":674,"☂":675,"☃":676,"☄":677,"★":678,"☆":679,"☎":680,"☏":681,"☐":682,"☑":683,"☔":684,"☕":685,"☛":686,"☜":687,"☝":688,"☞":689,"☠":690,"☪":691,"☹":692,"☺":693,"☼":694,"☽":695,"♀":696,"♂":697,"♠":698,"♡":699,"♣":700,"♥":701,"♦":702,"♧":703,"♨":704,"♩":705,"♪":706,"♫":707,"♬":708,"♭":709,"♯":710,"⚓":711,"⚘":712,"⚠":713,"⚡":714,"⚽":715,"⚾":716,"⛄":717,"⛅":718,"⛈":719,"⛑":720,"⛩":721,"⛪":722,"⛰":723,"⛱":724,"⛲":725,"⛳":726,"⛺":727,"✂":728,"✈":729,"✊":730,"✋":731,"✌":732,"✍":733,"✏":734,"✓":735,"✔":736,"✕":737,"✚":738,"✧":739,"✨":740,"✺":741,"✽":742,"❀":743,"❄":744,"❉":745,"❌":746,"❓":747,"❔":748,"❕":749,"❗":750,"❘":751,"❙":752,"❚":753,"❛":754,"❝":755,"❞":756,"❣":757,"❤":758,"❥":759,"❶":760,"❷":761,"❸":762,"❹":763,"➀":764,"➁":765,"➂":766,"➊":767,"➋":768,"➌":769,"➍":770,"➎":771,"➕":772,"➝":773,"➢":774,"➤":775,"➰":776,"➿":777,"⠀":778,"⦁":779,"⩟":780,"⭐":781,"⸝":782,"、":783,"。":784,"〃":785,"〇":786,"〈":787,"〉":788,"《":789,"》":790,"「":791,"」":792,"『":793,"』":794,"【":795,"】":796,"〒":797,"〓":798,"〔":799,"〕":800,"〜":801,"〮":802,"〰":803,"〽":804,"あ":805,"い":806,"う":807,"え":808,"お":809,"か":810,"が":811,"き":812,"ぎ":813,"く":814,"ぐ":815,"け":816,"げ":817,"こ":818,"ご":819,"さ":820,"ざ":821,"し":822,"じ":823,"す":824,"ず":825,"せ":826,"ぜ":827,"そ":828,"ぞ":829,"た":830,"だ":831,"ち":832,"っ":833,"つ":834,"づ":835,"て":836,"で":837,"と":838,"ど":839,"な":840,"に":841,"ぬ":842,"の":843,"は":844,"ば":845,"ぱ":846,"ひ":847,"び":848,"ぴ":849,"ふ":850,"ぶ":851,"ぷ":852,"へ":853,"べ":854,"ほ":855,"ぼ":856,"ぽ":857,"ま":858,"み":859,"む":860,"め":861,"も":862,"ゃ":863,"や":864,"ゅ":865,"ゆ":866,"ょ":867,"よ":868,"ら":869,"り":870,"る":871,"れ":872,"ろ":873,"わ":874,"を":875,"ん":876,"゜":877,"ゞ":878,"ア":879,"ィ":880,"イ":881,"ゥ":882,"ウ":883,"ェ":884,"エ":885,"オ":886,"カ":887,"ガ":888,"キ":889,"ギ":890,"ク":891,"グ":892,"ケ":893,"ゲ":894,"コ":895,"サ":896,"ザ":897,"シ":898,"ジ":899,"ス":900,"ズ":901,"セ":902,"ソ":903,"タ":904,"チ":905,"ッ":906,"ツ":907,"テ":908,"デ":909,"ト":910,"ド":911,"ナ":912,"ニ":913,"ネ":914,"ノ":915,"ハ":916,"バ":917,"パ":918,"ヒ":919,"ビ":920,"ピ":921,"フ":922,"ブ":923,"プ":924,"ヘ":925,"ベ":926,"ペ":927,"ポ":928,"マ":929,"ミ":930,"ム":931,"メ":932,"モ":933,"ャ":934,"ヤ":935,"ュ":936,"ユ":937,"ョ":938,"ヨ":939,"ラ":940,"リ":941,"ル":942,"レ":943,"ロ":944,"ワ":945,"ン":946,"ヶ":947,"・":948,"ー":949,"ヽ":950,"ㄱ":951,"ㄲ":952,"ㄴ":953,"ㄷ":954,"ㄸ":955,"ㄹ":956,"ㄼ":957,"ㅁ":958,"ㅂ":959,"ㅃ":960,"ㅄ":961,"ㅅ":962,"ㅆ":963,"ㅇ":964,"ㅈ":965,"ㅉ":966,"ㅊ":967,"ㅋ":968,"ㅌ":969,"ㅍ":970,"ㅎ":971,"ㅏ":972,"ㅐ":973,"ㅑ":974,"ㅓ":975,"ㅔ":976,"ㅕ":977,"ㅖ":978,"ㅗ":979,"ㅘ":980,"ㅚ":981,"ㅛ":982,"ㅜ":983,"ㅝ":984,"ㅞ":985,"ㅟ":986,"ㅠ":987,"ㅡ":988,"ㅢ":989,"ㅣ":990,"ㅤ":991,"ㅱ":992,"ㅿ":993,"ㆆ":994,"ㆍ":995,"㈆":996,"㈉":997,"㈎":998,"㈏":999,"㈐":1000,"㈑":1001,"㈔":1002,"㈖":1003,"㈜":1004,"㉠":1005,"㉡":1006,"㉢":1007,"㉣":1008,"㉤":1009,"㉥":1010,"㉧":1011,"㉮":1012,"㉯":1013,"㉰":1014,"㉿":1015,"㎁":1016,"㎂":1017,"㎃":1018,"㎄":1019,"㎅":1020,"㎆":1021,"㎇":1022,"㎈":1023,"㎉":1024,"㎌":1025,"㎍":1026,"㎎":1027,"㎏":1028,"㎐":1029,"㎑":1030,"㎒":1031,"㎓":1032,"㎔":1033,"㎕":1034,"㎖":1035,"㎗":1036,"㎘":1037,"㎙":1038,"㎚":1039,"㎛":1040,"㎜":1041,"㎝":1042,"㎞":1043,"㎟":1044,"㎠":1045,"㎡":1046,"㎢":1047,"㎣":1048,"㎤":1049,"㎥":1050,"㎦":1051,"㎧":1052,"㎩":1053,"㎪":1054,"㎫":1055,"㎬":1056,"㎰":1057,"㎲":1058,"㎳":1059,"㎶":1060,"㎷":1061,"㎸":1062,"㎹":1063,"㎼":1064,"㎽":1065,"㎾":1066,"㎿":1067,"㏃":1068,"㏄":1069,"㏅":1070,"㏈":1071,"㏊":1072,"㏏":1073,"㏐":1074,"㏖":1075,"㏙":1076,"㏜":1077,"䄙":1078,"一":1079,"丁":1080,"七":1081,"万":1082,"丈":1083,"三":1084,"上":1085,"下":1086,"不":1087,"丑":1088,"且":1089,"丕":1090,"世":1091,"丘":1092,"丙":1093,"业":1094,"东":1095,"丞":1096,"並":1097,"中":1098,"丰":1099,"串":1100,"丸":1101,"丹":1102,"为":1103,"主":1104,"丽":1105,"乃":1106,"久":1107,"之":1108,"乎":1109,"乏":1110,"乐":1111,"乖":1112,"乘":1113,"乙":1114,"九":1115,"乞":1116,"也":1117,"乭":1118,"买":1119,"乳":1120,"乾":1121,"亂":1122,"了":1123,"予":1124,"事":1125,"二":1126,"于":1127,"云":1128,"互":1129,"五":1130,"井":1131,"亘":1132,"些":1133,"亞":1134,"亡":1135,"亢":1136,"交":1137,"亥":1138,"亦":1139,"亨":1140,"享":1141,"京":1142,"亭":1143,"亮":1144,"亹":1145,"人":1146,"什":1147,"仁":1148,"仇":1149,"今":1150,"介":1151,"仍":1152,"仏":1153,"仔":1154,"仕":1155,"他":1156,"付":1157,"仙":1158,"仞":1159,"代":1160,"令":1161,"以":1162,"们":1163,"仮":1164,"仰":1165,"仲":1166,"件":1167,"任":1168,"份":1169,"企":1170,"伊":1171,"伋":1172,"伍":1173,"伎":1174,"伏":1175,"伐":1176,"休":1177,"会":1178,"伝":1179,"传":1180,"伯":1181,"伴":1182,"伶":1183,"伸":1184,"似":1185,"伽":1186,"佃":1187,"但":1188,"佇":1189,"位":1190,"低":1191,"住":1192,"佐":1193,"佑":1194,"体":1195,"何":1196,"余":1197,"佚":1198,"佛":1199,"作":1200,"佟":1201,"你":1202,"佩":1203,"佰":1204,"佳":1205,"佶":1206,"佾":1207,"使":1208,"侃":1209,"來":1210,"侈":1211,"例":1212,"侍":1213,"侖":1214,"供":1215,"依":1216,"侮":1217,"侯":1218,"侵":1219,"侶":1220,"便":1221,"俁":1222,"係":1223,"促":1224,"俄":1225,"俉":1226,"俊":1227,"俎":1228,"俏":1229,"俑":1230,"俔":1231,"俗":1232,"俚":1233,"俛":1234,"保":1235,"俞":1236,"俟":1237,"俠":1238,"信":1239,"修":1240,"俯":1241,"俱":1242,"俳":1243,"俵":1244,"俸":1245,"倂":1246,"倉":1247,"個":1248,"倍":1249,"們":1250,"倒":1251,"倖":1252,"候":1253,"倚":1254,"倜":1255,"借":1256,"倡":1257,"値":1258,"倦":1259,"倧":1260,"倪":1261,"倫":1262,"倭":1263,"倻":1264,"值":1265,"偃":1266,"假":1267,"偈":1268,"偉":1269,"偏":1270,"偕":1271,"做":1272,"停":1273,"健":1274,"側":1275,"偵":1276,"偶":1277,"偸":1278,"傀":1279,"傅":1280,"傍":1281,"傑":1282,"傘":1283,"備":1284,"储":1285,"催":1286,"傭":1287,"傲":1288,"傳":1289,"債":1290,"傷":1291,"傾":1292,"僉":1293,"僊":1294,"像":1295,"僑":1296,"僕":1297,"僖":1298,"僚":1299,"僞":1300,"僥":1301,"僧":1302,"僭":1303,"價":1304,"僻":1305,"僾":1306,"僿":1307,"儀":1308,"儁":1309,"億":1310,"儆":1311,"儉":1312,"儒":1313,"儘":1314,"償":1315,"儡":1316,"優":1317,"儲":1318,"儷":1319,"儺":1320,"儼":1321,"儿":1322,"兀":1323,"允":1324,"元":1325,"兄":1326,"充":1327,"兆":1328,"先":1329,"光":1330,"克":1331,"兌":1332,"免":1333,"兎":1334,"兒":1335,"兔":1336,"党":1337,"兜":1338,"兢":1339,"入":1340,"內":1341,"全":1342,"兩":1343,"兪":1344,"八":1345,"公":1346,"六":1347,"兮":1348,"兰":1349,"共":1350,"关":1351,"兴":1352,"兵":1353,"其":1354,"具":1355,"典":1356,"兼":1357,"冀":1358,"冃":1359,"内":1360,"円":1361,"冊":1362,"再":1363,"冑":1364,"冒":1365,"冕":1366,"冗":1367,"军":1368,"农":1369,"冠":1370,"冢":1371,"冥":1372,"冬":1373,"冰":1374,"冶":1375,"冷":1376,"凄":1377,"准":1378,"凈":1379,"凉":1380,"凋":1381,"凌":1382,"凍":1383,"减":1384,"凝":1385,"几":1386,"凡":1387,"凪":1388,"凰":1389,"凱":1390,"凶":1391,"凸":1392,"凹":1393,"出":1394,"函":1395,"刀":1396,"刃":1397,"分":1398,"切":1399,"刈":1400,"刊":1401,"刑":1402,"列":1403,"刘":1404,"初":1405,"判":1406,"別":1407,"利":1408,"刮":1409,"到":1410,"制":1411,"刷":1412,"券":1413,"刹":1414,"刺":1415,"刻":1416,"則":1417,"削":1418,"剋":1419,"剌":1420,"前":1421,"剖":1422,"剛":1423,"剝":1424,"剡":1425,"剩":1426,"剪":1427,"副":1428,"割":1429,"創":1430,"剽":1431,"剿":1432,"劃":1433,"劇":1434,"劈":1435,"劉":1436,"劍":1437,"劑":1438,"劒":1439,"力":1440,"功":1441,"加":1442,"务":1443,"劣":1444,"助":1445,"努":1446,"劫":1447,"労":1448,"効":1449,"劾":1450,"勁":1451,"勃":1452,"勅":1453,"勇":1454,"勉":1455,"勒":1456,"動":1457,"勘":1458,"務":1459,"勛":1460,"勝":1461,"勞":1462,"募":1463,"勢":1464,"勤":1465,"勳":1466,"勵":1467,"勸":1468,"勹":1469,"勾":1470,"勿":1471,"包":1472,"匈":1473,"匊":1474,"匕":1475,"化":1476,"北":1477,"匙":1478,"匠":1479,"匡":1480,"匣":1481,"匪":1482,"匯":1483,"匱":1484,"匹":1485,"区":1486,"医":1487,"匿":1488,"區":1489,"十":1490,"千":1491,"卄":1492,"升":1493,"午":1494,"卉":1495,"半":1496,"卍":1497,"华":1498,"协":1499,"卑":1500,"卒":1501,"卓":1502,"協":1503,"南":1504,"博":1505,"卜":1506,"卞":1507,"占":1508,"卡":1509,"卦":1510,"卨":1511,"卯":1512,"印":1513,"危":1514,"却":1515,"卵":1516,"卷":1517,"卽":1518,"卿":1519,"厂":1520,"厄":1521,"厓":1522,"厚":1523,"原":1524,"厠":1525,"厥":1526,"厦":1527,"厭":1528,"厳":1529,"厶":1530,"去":1531,"参":1532,"參":1533,"又":1534,"叉":1535,"及":1536,"友":1537,"反":1538,"发":1539,"叔":1540,"取":1541,"受":1542,"叛":1543,"叟":1544,"叡":1545,"叢":1546,"口":1547,"古":1548,"句":1549,"叩":1550,"只":1551,"叫":1552,"召":1553,"可":1554,"台":1555,"叱":1556,"史":1557,"右":1558,"号":1559,"司":1560,"叺":1561,"吃":1562,"各":1563,"合":1564,"吉":1565,"同":1566,"名":1567,"后":1568,"吏":1569,"吐":1570,"向":1571,"君":1572,"吝":1573,"吞":1574,"吟":1575,"吠":1576,"否":1577,"吧":1578,"含":1579,"吳":1580,"吴":1581,"吸":1582,"吹":1583,"吼":1584,"吾":1585,"呀":1586,"呂":1587,"呆":1588,"呈":1589,"告":1590,"呑":1591,"周":1592,"呪":1593,"味":1594,"呵":1595,"呻":1596,"呼":1597,"命":1598,"咀":1599,"咄":1600,"咆":1601,"和":1602,"咎":1603,"咨":1604,"咫":1605,"咬":1606,"咲":1607,"咳":1608,"咸":1609,"咽":1610,"哀":1611,"品":1612,"哈":1613,"哉":1614,"員":1615,"哥":1616,"哨":1617,"哭":1618,"哮":1619,"哲":1620,"哺":1621,"唄":1622,"唆":1623,"唇":1624,"唎":1625,"唐":1626,"唯":1627,"唱":1628,"唾":1629,"啄":1630,"商":1631,"問":1632,"啐":1633,"啓":1634,"啖":1635,"啞":1636,"啼":1637,"喀":1638,"善":1639,"喆":1640,"喇":1641,"喉":1642,"喘":1643,"喙":1644,"喚":1645,"喜":1646,"喝":1647,"喧":1648,"喩":1649,"喪":1650,"喫":1651,"喬":1652,"單":1653,"嗅":1654,"嗇":1655,"嗔":1656,"嗚":1657,"嗜":1658,"嗟":1659,"嗣":1660,"嗤":1661,"嗾":1662,"嘆":1663,"嘉":1664,"嘗":1665,"嘩":1666,"嘯":1667,"嘲":1668,"嘴":1669,"器":1670,"噪":1671,"噴":1672,"噶":1673,"嚆":1674,"嚥":1675,"嚬":1676,"嚮":1677,"嚴":1678,"嚼":1679,"囈":1680,"囊":1681,"囍":1682,"囑":1683,"囚":1684,"四":1685,"回":1686,"因":1687,"团":1688,"団":1689,"园":1690,"困":1691,"図":1692,"围":1693,"囹":1694,"固":1695,"国":1696,"囿":1697,"圃":1698,"圄":1699,"圈":1700,"國":1701,"圍":1702,"園":1703,"圓":1704,"圖":1705,"團":1706,"圜":1707,"土":1708,"在":1709,"圩":1710,"圭":1711,"地":1712,"圳":1713,"场":1714,"址":1715,"坂":1716,"均":1717,"坊":1718,"坍":1719,"坎":1720,"坐":1721,"坑":1722,"坡":1723,"坤":1724,"坦":1725,"坪":1726,"垂":1727,"垈":1728,"型":1729,"垓":1730,"垕":1731,"垠":1732,"垢":1733,"垣":1734,"埃":1735,"埈":1736,"埋":1737,"城":1738,"域":1739,"埠":1740,"執":1741,"埸":1742,"培":1743,"基":1744,"埼":1745,"堀":1746,"堂":1747,"堅":1748,"堆":1749,"堈":1750,"堊":1751,"堞":1752,"堡":1753,"堤":1754,"堧":1755,"堪":1756,"堯":1757,"堰":1758,"報":1759,"場":1760,"堺":1761,"塊":1762,"塋":1763,"塏":1764,"塑":1765,"塔":1766,"塗":1767,"塘":1768,"塚":1769,"塞":1770,"塡":1771,"塢":1772,"塤":1773,"塩":1774,"塵":1775,"塼":1776,"塾":1777,"境":1778,"墅":1779,"墉":1780,"墓":1781,"墜":1782,"增":1783,"墟":1784,"墨":1785,"墩":1786,"墮":1787,"墳":1788,"墺":1789,"墻":1790,"壁":1791,"壅":1792,"壇":1793,"壑":1794,"壓":1795,"壘":1796,"壙":1797,"壞":1798,"壟":1799,"壤":1800,"士":1801,"壬":1802,"壮":1803,"壯":1804,"声":1805,"壹":1806,"壺":1807,"壻":1808,"壽":1809,"夂":1810,"复":1811,"夏":1812,"夕":1813,"外":1814,"夙":1815,"多":1816,"夜":1817,"夢":1818,"大":1819,"天":1820,"太":1821,"夫":1822,"夭":1823,"央":1824,"失":1825,"头":1826,"夷":1827,"夾":1828,"奄":1829,"奇":1830,"奈":1831,"奉":1832,"奎":1833,"奏":1834,"契":1835,"奔":1836,"奕":1837,"奖":1838,"套":1839,"奚":1840,"奠":1841,"奢":1842,"奥":1843,"奧":1844,"奪":1845,"奬":1846,"奭":1847,"奮":1848,"女":1849,"奴":1850,"奶":1851,"奸":1852,"好":1853,"如":1854,"妃":1855,"妄":1856,"妊":1857,"妓":1858,"妖":1859,"妙":1860,"妥":1861,"妨":1862,"妬":1863,"妹":1864,"妻":1865,"妾":1866,"姆":1867,"姉":1868,"姊":1869,"始":1870,"姐":1871,"姑":1872,"姓":1873,"委":1874,"姙":1875,"姚":1876,"姜":1877,"姤":1878,"姦":1879,"姪":1880,"姫":1881,"姬":1882,"姮":1883,"姸":1884,"姻":1885,"姿":1886,"威":1887,"娃":1888,"娑":1889,"娘":1890,"娚":1891,"娛":1892,"娜":1893,"娟":1894,"娠":1895,"娥":1896,"娩":1897,"娱":1898,"娶":1899,"娼":1900,"婁":1901,"婆":1902,"婉":1903,"婚":1904,"婢":1905,"婦":1906,"媒":1907,"媚":1908,"媛":1909,"媤":1910,"媽":1911,"嫁":1912,"嫂":1913,"嫉":1914,"嫌":1915,"嫡":1916,"嫥":1917,"嫦":1918,"嫩":1919,"嬉":1920,"嬌":1921,"嬪":1922,"嬰":1923,"嬾":1924,"子":1925,"孑":1926,"孔":1927,"孕":1928,"字":1929,"存":1930,"孙":1931,"孚":1932,"孛":1933,"孜":1934,"孝":1935,"孟":1936,"季":1937,"孤":1938,"学":1939,"孩":1940,"孫":1941,"學":1942,"孺":1943,"孼":1944,"孽":1945,"宁":1946,"宅":1947,"宇":1948,"守":1949,"安":1950,"宋":1951,"完":1952,"宏":1953,"宗":1954,"官":1955,"宙":1956,"定":1957,"宛":1958,"宜":1959,"宝":1960,"实":1961,"実":1962,"客":1963,"宣":1964,"室":1965,"宥":1966,"宦":1967,"宮":1968,"宰":1969,"害":1970,"宴":1971,"宵":1972,"家":1973,"容":1974,"宿":1975,"寂":1976,"寃":1977,"寄":1978,"寅":1979,"密":1980,"寇":1981,"富":1982,"寐":1983,"寒":1984,"寓":1985,"寝":1986,"察":1987,"寠":1988,"寡":1989,"寢":1990,"寤":1991,"寥":1992,"實":1993,"寧":1994,"寨":1995,"審":1996,"寫":1997,"寬":1998,"寮":1999,"寰":2000,"寵":2001,"寶":2002,"寸":2003,"对":2004,"寺":2005,"寿":2006,"封":2007,"射":2008,"將":2009,"專":2010,"尉":2011,"尊":2012,"尋":2013,"對":2014,"導":2015,"小":2016,"少":2017,"尔":2018,"尖":2019,"尙":2020,"尤":2021,"就":2022,"尸":2023,"尹":2024,"尺":2025,"尻":2026,"尼":2027,"尾":2028,"尿":2029,"局":2030,"居":2031,"屈":2032,"屋":2033,"屍":2034,"屎":2035,"展":2036,"屛":2037,"屠":2038,"層":2039,"履":2040,"屬":2041,"屯":2042,"山":2043,"屹":2044,"岐":2045,"岑":2046,"岛":2047,"岡":2048,"岩":2049,"岫":2050,"岬":2051,"岳":2052,"岵":2053,"岷":2054,"岸":2055,"峀":2056,"峙":2057,"峠":2058,"峨":2059,"峯":2060,"峰":2061,"峴":2062,"島":2063,"峻":2064,"峽":2065,"崂":2066,"崇":2067,"崎":2068,"崑":2069,"崔":2070,"崖":2071,"崗":2072,"崙":2073,"崛":2074,"崞":2075,"崧":2076,"崩":2077,"崪":2078,"嵊":2079,"嵋":2080,"嵌":2081,"嵐":2082,"嵩":2083,"嵯":2084,"嶋":2085,"嶝":2086,"嶠":2087,"嶢":2088,"嶺":2089,"嶼":2090,"嶽":2091,"巍":2092,"巖":2093,"川":2094,"州":2095,"巡":2096,"巢":2097,"工":2098,"左":2099,"巧":2100,"巨":2101,"巫":2102,"差":2103,"己":2104,"已":2105,"巳":2106,"巴":2107,"巷":2108,"巹":2109,"巽":2110,"巾":2111,"市":2112,"布":2113,"帅":2114,"帆":2115,"希":2116,"帑":2117,"帔":2118,"帖":2119,"帙":2120,"帛":2121,"帝":2122,"帥":2123,"師":2124,"席":2125,"帳":2126,"帶":2127,"帷":2128,"常":2129,"帽":2130,"帿":2131,"幀":2132,"幅":2133,"幇":2134,"幌":2135,"幕":2136,"幟":2137,"幡":2138,"幢":2139,"幣":2140,"干":2141,"平":2142,"年":2143,"幷":2144,"幸":2145,"幹":2146,"幻":2147,"幼":2148,"幽":2149,"幾":2150,"广":2151,"広":2152,"庄":2153,"庇":2154,"床":2155,"序":2156,"底":2157,"庖":2158,"店":2159,"庚":2160,"府":2161,"庠":2162,"度":2163,"座":2164,"庫":2165,"庭":2166,"庵":2167,"庶":2168,"康":2169,"庸":2170,"庾":2171,"廁":2172,"廂":2173,"廈":2174,"廉":2175,"廊":2176,"廐":2177,"廓":2178,"廖":2179,"廚":2180,"廛":2181,"廟":2182,"廠":2183,"廢":2184,"廣":2185,"廨":2186,"廬":2187,"廳":2188,"延":2189,"廷":2190,"建":2191,"廻":2192,"廾":2193,"开":2194,"弁":2195,"弄":2196,"弊":2197,"弋":2198,"式":2199,"弑":2200,"弓":2201,"弔":2202,"引":2203,"弗":2204,"弘":2205,"弛":2206,"弟":2207,"张":2208,"弦":2209,"弧":2210,"弩":2211,"弱":2212,"張":2213,"强":2214,"弼":2215,"彈":2216,"彊":2217,"彌":2218,"彎":2219,"当":2220,"彗":2221,"彙":2222,"彛":2223,"形":2224,"彦":2225,"彩":2226,"彪":2227,"彫":2228,"彬":2229,"彭":2230,"彰":2231,"影":2232,"彳":2233,"彷":2234,"役":2235,"彼":2236,"往":2237,"征":2238,"待":2239,"徇":2240,"很":2241,"律":2242,"後":2243,"徐":2244,"徑":2245,"徒":2246,"得":2247,"徘":2248,"徙":2249,"從":2250,"御":2251,"徧":2252,"徨":2253,"復":2254,"循":2255,"微":2256,"徳":2257,"徵":2258,"德":2259,"徹":2260,"徽":2261,"心":2262,"忄":2263,"必":2264,"忌":2265,"忍":2266,"忖":2267,"志":2268,"忘":2269,"忙":2270,"忠":2271,"快":2272,"念":2273,"忽":2274,"忿":2275,"怒":2276,"怕":2277,"怖":2278,"怜":2279,"思":2280,"怠":2281,"怡":2282,"急":2283,"性":2284,"怨":2285,"怪":2286,"怯":2287,"恁":2288,"恂":2289,"恋":2290,"恐":2291,"恒":2292,"恕":2293,"恢":2294,"恣":2295,"恤":2296,"恥":2297,"恨":2298,"恩":2299,"恪":2300,"恬":2301,"恭":2302,"息":2303,"悅":2304,"悉":2305,"悌":2306,"悍":2307,"悔":2308,"悖":2309,"悛":2310,"悟":2311,"悠":2312,"患":2313,"悦":2314,"悲":2315,"悳":2316,"悴":2317,"悶":2318,"悼":2319,"情":2320,"惇":2321,"惑":2322,"惜":2323,"惟":2324,"惠":2325,"惡":2326,"惰":2327,"惱":2328,"想":2329,"惶":2330,"惺":2331,"惻":2332,"愁":2333,"愍":2334,"意":2335,"愚":2336,"愛":2337,"感":2338,"愧":2339,"愭":2340,"愴":2341,"愷":2342,"愼":2343,"愿":2344,"慄":2345,"慈":2346,"態":2347,"慌":2348,"慎":2349,"慕":2350,"慘":2351,"慙":2352,"慟":2353,"慢":2354,"慣":2355,"慥":2356,"慧":2357,"慮":2358,"慰":2359,"慵":2360,"慶":2361,"慷":2362,"慽":2363,"慾":2364,"憂":2365,"憎":2366,"憐":2367,"憑":2368,"憙":2369,"憚":2370,"憤":2371,"憧":2372,"憬":2373,"憲":2374,"憶":2375,"憺":2376,"憾":2377,"懇":2378,"懈":2379,"應":2380,"懋":2381,"懥":2382,"懲":2383,"懷":2384,"懸":2385,"懺":2386,"懼":2387,"懽":2388,"懿":2389,"戀":2390,"戇":2391,"戈":2392,"戊":2393,"戌":2394,"戍":2395,"戎":2396,"成":2397,"我":2398,"戒":2399,"或":2400,"战":2401,"戚":2402,"戟":2403,"戡":2404,"戦":2405,"截":2406,"戮":2407,"戰":2408,"戱":2409,"戲":2410,"戴":2411,"戶":2412,"戸":2413,"戾":2414,"房":2415,"所":2416,"扁":2417,"扇":2418,"扈":2419,"扉":2420,"手":2421,"才":2422,"打":2423,"托":2424,"扣":2425,"扬":2426,"扮":2427,"扶":2428,"批":2429,"扼":2430,"承":2431,"技":2432,"抄":2433,"抉":2434,"把":2435,"抑":2436,"抒":2437,"抓":2438,"投":2439,"抗":2440,"折":2441,"抛":2442,"护":2443,"报":2444,"披":2445,"抱":2446,"抵":2447,"抹":2448,"押":2449,"抽":2450,"拂":2451,"拇":2452,"拈":2453,"拉":2454,"拊":2455,"拍":2456,"拏":2457,"拐":2458,"拒":2459,"拓":2460,"拔":2461,"拘":2462,"拙":2463,"招":2464,"拜":2465,"拝":2466,"括":2467,"拭":2468,"拮":2469,"拯":2470,"拱":2471,"拳":2472,"拷":2473,"拾":2474,"拿":2475,"持":2476,"指":2477,"按":2478,"挑":2479,"挫":2480,"振":2481,"挺":2482,"挻":2483,"挽":2484,"挾":2485,"捉":2486,"捌":2487,"捐":2488,"捕":2489,"捧":2490,"捨":2491,"据":2492,"捲":2493,"捷":2494,"捺":2495,"捻":2496,"掃":2497,"授":2498,"掌":2499,"排":2500,"掖":2501,"掘":2502,"掛":2503,"掠":2504,"採":2505,"探":2506,"接":2507,"控":2508,"推":2509,"掩":2510,"措":2511,"揀":2512,"揆":2513,"描":2514,"提":2515,"揖":2516,"揚":2517,"換":2518,"握":2519,"揭":2520,"揮":2521,"援":2522,"揷":2523,"損":2524,"搏":2525,"搔":2526,"搖":2527,"搗":2528,"搜":2529,"搬":2530,"搭":2531,"搶":2532,"携":2533,"搾":2534,"摘":2535,"摜":2536,"摠":2537,"摩":2538,"摯":2539,"摸":2540,"摹":2541,"摺":2542,"撇":2543,"撈":2544,"撐":2545,"撑":2546,"撒":2547,"撞":2548,"撤":2549,"撥":2550,"撫":2551,"播":2552,"撮":2553,"撰":2554,"撲":2555,"撻":2556,"擁":2557,"擇":2558,"擊":2559,"操":2560,"擎":2561,"擒":2562,"擔":2563,"據":2564,"擦":2565,"擧":2566,"擬":2567,"擲":2568,"擴":2569,"擹":2570,"擺":2571,"擾":2572,"攀":2573,"攄":2574,"攘":2575,"攝":2576,"攪":2577,"攬":2578,"支":2579,"收":2580,"攷":2581,"攸":2582,"改":2583,"攻":2584,"放":2585,"政":2586,"故":2587,"效":2588,"敍":2589,"敎":2590,"敏":2591,"救":2592,"敖":2593,"敗":2594,"教":2595,"敞":2596,"敢":2597,"散":2598,"敦":2599,"敬":2600,"数":2601,"敲":2602,"整":2603,"敵":2604,"敷":2605,"數":2606,"敾":2607,"斂":2608,"文":2609,"斉":2610,"斌":2611,"斎":2612,"斐":2613,"斑":2614,"斗":2615,"料":2616,"斛":2617,"斜":2618,"斡":2619,"斤":2620,"斥":2621,"斧":2622,"斬":2623,"斯":2624,"新":2625,"斷":2626,"方":2627,"於":2628,"施":2629,"旁":2630,"旅":2631,"旋":2632,"旌":2633,"族":2634,"旗":2635,"无":2636,"旣":2637,"日":2638,"旦":2639,"旧":2640,"旨":2641,"早":2642,"旬":2643,"旭":2644,"旱":2645,"时":2646,"旺":2647,"旻":2648,"旼":2649,"旿":2650,"昀":2651,"昆":2652,"昇":2653,"昊":2654,"昌":2655,"明":2656,"昏":2657,"昑":2658,"易":2659,"昔":2660,"昕":2661,"昞":2662,"星":2663,"映":2664,"春":2665,"昧":2666,"昨":2667,"昭":2668,"是":2669,"昱":2670,"昴":2671,"昶":2672,"昻":2673,"時":2674,"晃":2675,"晉":2676,"晋":2677,"晏":2678,"晓":2679,"晙":2680,"晚":2681,"晝":2682,"晟":2683,"晦":2684,"晨":2685,"晩":2686,"普":2687,"景":2688,"晰":2689,"晳":2690,"晴":2691,"晶":2692,"晷":2693,"智":2694,"暁":2695,"暄":2696,"暇":2697,"暈":2698,"暉":2699,"暎":2700,"暑":2701,"暖":2702,"暗":2703,"暘":2704,"暝":2705,"暢":2706,"暫":2707,"暮":2708,"暲":2709,"暳":2710,"暴":2711,"暹":2712,"暻":2713,"暾":2714,"曄":2715,"曆":2716,"曇":2717,"曉":2718,"曙":2719,"曜":2720,"曝":2721,"曠":2722,"曦":2723,"曰":2724,"曲":2725,"曳":2726,"更":2727,"書":2728,"曹":2729,"曺":2730,"曼":2731,"曽":2732,"曾":2733,"替":2734,"最":2735,"會":2736,"月":2737,"有":2738,"朋":2739,"服":2740,"朔":2741,"朕":2742,"朗":2743,"望":2744,"朝":2745,"期":2746,"木":2747,"未":2748,"末":2749,"本":2750,"札":2751,"朮":2752,"朱":2753,"朴":2754,"机":2755,"朽":2756,"杆":2757,"杉":2758,"杌":2759,"李":2760,"杏":2761,"材":2762,"村":2763,"杓":2764,"杖":2765,"杜":2766,"杞":2767,"束":2768,"条":2769,"杨":2770,"杭":2771,"杯":2772,"杰":2773,"東":2774,"杳":2775,"杵":2776,"杷":2777,"松":2778,"板":2779,"枉":2780,"枋":2781,"枏":2782,"析":2783,"枕":2784,"林":2785,"枚":2786,"果":2787,"枝":2788,"枯":2789,"枰":2790,"枳":2791,"架":2792,"枾":2793,"柁":2794,"柄":2795,"柏":2796,"某":2797,"柑":2798,"染":2799,"柔":2800,"柘":2801,"柚":2802,"柩":2803,"柬":2804,"柯":2805,"柰":2806,"柱":2807,"柳":2808,"柴":2809,"柵":2810,"柶":2811,"査":2812,"栃":2813,"栄":2814,"栈":2815,"栓":2816,"栖":2817,"栗":2818,"校":2819,"栢":2820,"株":2821,"栱":2822,"核":2823,"根":2824,"格":2825,"栽":2826,"桀":2827,"桂":2828,"桃":2829,"案":2830,"桎":2831,"桐":2832,"桑":2833,"桓":2834,"桔":2835,"桜":2836,"桶":2837,"梁":2838,"梅":2839,"梏":2840,"梓":2841,"梔":2842,"梗":2843,"條":2844,"梟":2845,"梦":2846,"梧":2847,"梨":2848,"梭":2849,"梯":2850,"械":2851,"梳":2852,"梵":2853,"棄":2854,"棉":2855,"棋":2856,"棍":2857,"棒":2858,"棕":2859,"棗":2860,"棘":2861,"棚":2862,"棟":2863,"棠":2864,"棧":2865,"棨":2866,"森":2867,"棲":2868,"棺":2869,"椀":2870,"椅":2871,"椋":2872,"植":2873,"椎":2874,"椒":2875,"椽":2876,"椿":2877,"楊":2878,"楓":2879,"楕":2880,"楗":2881,"楚":2882,"楠":2883,"楡":2884,"楢":2885,"業":2886,"楮":2887,"極":2888,"楷":2889,"楹":2890,"楽":2891,"榊":2892,"榕":2893,"榜":2894,"榥":2895,"榧":2896,"榮":2897,"榴":2898,"槃":2899,"構":2900,"槌":2901,"槍":2902,"槎":2903,"槐":2904,"様":2905,"槨":2906,"槪":2907,"槻":2908,"槽":2909,"槿":2910,"樂":2911,"樊":2912,"樋":2913,"樑":2914,"樓":2915,"樗":2916,"標":2917,"樞":2918,"樟":2919,"模":2920,"樣":2921,"樵":2922,"樸":2923,"樹":2924,"樺":2925,"樽":2926,"橃":2927,"橋":2928,"橘":2929,"橙":2930,"機":2931,"橫":2932,"檀":2933,"檄":2934,"檎":2935,"檐":2936,"檜":2937,"檢":2938,"檣":2939,"檮":2940,"檻":2941,"櫃":2942,"櫛":2943,"櫻":2944,"欄":2945,"權":2946,"欌":2947,"欒":2948,"欖":2949,"欠":2950,"次":2951,"欣":2952,"欲":2953,"欹":2954,"欺":2955,"欽":2956,"款":2957,"歆":2958,"歇":2959,"歌":2960,"歎":2961,"歐":2962,"歟":2963,"歡":2964,"止":2965,"正":2966,"此":2967,"步":2968,"武":2969,"歪":2970,"歲":2971,"歳":2972,"歷":2973,"歸":2974,"死":2975,"殃":2976,"殆":2977,"殉":2978,"殊":2979,"殖":2980,"殘":2981,"殞":2982,"殮":2983,"殯":2984,"殲":2985,"殳":2986,"段":2987,"殷":2988,"殺":2989,"殼":2990,"殿":2991,"毁":2992,"毅":2993,"毆":2994,"毋":2995,"母":2996,"每":2997,"毒":2998,"毓":2999,"比":3000,"毖":3001,"毗":3002,"毘":3003,"毛":3004,"毫":3005,"毬":3006,"氈":3007,"氏":3008,"民":3009,"氓":3010,"氣":3011,"水":3012,"氵":3013,"氷":3014,"永":3015,"氾":3016,"汀":3017,"汁":3018,"求":3019,"汇":3020,"汉":3021,"汎":3022,"汐":3023,"汕":3024,"汗":3025,"汚":3026,"汝":3027,"江":3028,"池":3029,"汨":3030,"汪":3031,"汭":3032,"汰":3033,"汲":3034,"汶":3035,"決":3036,"汽":3037,"汾":3038,"沁":3039,"沂":3040,"沃":3041,"沅":3042,"沆":3043,"沈":3044,"沌":3045,"沐":3046,"沒":3047,"沓":3048,"沖":3049,"沘":3050,"沙":3051,"沛":3052,"沢":3053,"沪":3054,"沫":3055,"沮":3056,"河":3057,"沸":3058,"油":3059,"治":3060,"沼":3061,"沽":3062,"沿":3063,"況":3064,"泂":3065,"泄":3066,"泉":3067,"泊":3068,"泌":3069,"泓":3070,"法":3071,"泗":3072,"泛":3073,"泡":3074,"波":3075,"泣":3076,"泥":3077,"注":3078,"泫":3079,"泯":3080,"泰":3081,"泳":3082,"洁":3083,"洋":3084,"洌":3085,"洑":3086,"洗":3087,"洙":3088,"洛":3089,"洞":3090,"津":3091,"洪":3092,"洲":3093,"洵":3094,"洸":3095,"洹":3096,"活":3097,"洽":3098,"派":3099,"流":3100,"浅":3101,"浆":3102,"济":3103,"浙":3104,"浚":3105,"浜":3106,"浣":3107,"浦":3108,"浩":3109,"浪":3110,"浮":3111,"浴":3112,"海":3113,"浸":3114,"浿":3115,"涅":3116,"涇":3117,"消":3118,"涉":3119,"涌":3120,"涎":3121,"润":3122,"涯":3123,"液":3124,"涴":3125,"涵":3126,"淀":3127,"淄":3128,"淅":3129,"淇":3130,"淋":3131,"淑":3132,"淘":3133,"淚":3134,"淞":3135,"淡":3136,"淥":3137,"淨":3138,"淪":3139,"淫":3140,"淮":3141,"深":3142,"淳":3143,"淵":3144,"混":3145,"淸":3146,"淹":3147,"淺":3148,"添":3149,"清":3150,"済":3151,"渋":3152,"渗":3153,"渙":3154,"渚":3155,"減":3156,"渝":3157,"渟":3158,"渠":3159,"渡":3160,"渤":3161,"渥":3162,"渦":3163,"温":3164,"渫":3165,"測":3166,"渭":3167,"港":3168,"渲":3169,"渴":3170,"游":3171,"渺":3172,"渼":3173,"渾":3174,"湃":3175,"湊":3176,"湌":3177,"湑":3178,"湖":3179,"湘":3180,"湛":3181,"湜":3182,"湞":3183,"湧":3184,"湫":3185,"湯":3186,"湲":3187,"湺":3188,"源":3189,"準":3190,"溜":3191,"溝":3192,"溟":3193,"溢":3194,"溥":3195,"溪":3196,"溫":3197,"溱":3198,"溶":3199,"溺":3200,"滄":3201,"滅":3202,"滉":3203,"滋":3204,"滌":3205,"滑":3206,"滓":3207,"滔":3208,"滕":3209,"滬":3210,"滯":3211,"滴":3212,"滿":3213,"漁":3214,"漂":3215,"漆":3216,"漉":3217,"漏":3218,"漑":3219,"演":3220,"漕":3221,"漠":3222,"漢":3223,"漣":3224,"漫":3225,"漬":3226,"漱":3227,"漲":3228,"漵":3229,"漸":3230,"漿":3231,"潁":3232,"潑":3233,"潔":3234,"潘":3235,"潛":3236,"潟":3237,"潤":3238,"潭":3239,"潮":3240,"潰":3241,"潼":3242,"潽":3243,"澁":3244,"澄":3245,"澆":3246,"澈":3247,"澎":3248,"澗":3249,"澣":3250,"澤":3251,"澳":3252,"澹":3253,"激":3254,"濁":3255,"濂":3256,"濃":3257,"濊":3258,"濕":3259,"濛":3260,"濟":3261,"濠":3262,"濡":3263,"濤":3264,"濫":3265,"濬":3266,"濯":3267,"濱":3268,"濼":3269,"濾":3270,"瀆":3271,"瀉":3272,"瀋":3273,"瀏":3274,"瀑":3275,"瀕":3276,"瀘":3277,"瀚":3278,"瀛":3279,"瀝":3280,"瀞":3281,"瀟":3282,"瀣":3283,"瀧":3284,"瀨":3285,"瀬":3286,"瀷":3287,"瀾":3288,"灆":3289,"灈":3290,"灌":3291,"灑":3292,"灘":3293,"灣":3294,"灤":3295,"火":3296,"灯":3297,"灰":3298,"灸":3299,"灼":3300,"災":3301,"炅":3302,"炊":3303,"炎":3304,"炒":3305,"炘":3306,"炙":3307,"炫":3308,"炬":3309,"炭":3310,"炯":3311,"炳":3312,"炸":3313,"点":3314,"烈":3315,"烏":3316,"烘":3317,"烙":3318,"烝":3319,"烟":3320,"烱":3321,"烹":3322,"烽":3323,"焉":3324,"焙":3325,"焚":3326,"無":3327,"焦":3328,"焰":3329,"然":3330,"焼":3331,"煇":3332,"煉":3333,"煌":3334,"煎":3335,"煐":3336,"煖":3337,"煙":3338,"煜":3339,"煞":3340,"煤":3341,"煥":3342,"照":3343,"煩":3344,"煬":3345,"煮":3346,"熄":3347,"熊":3348,"熏":3349,"熒":3350,"熔":3351,"熙":3352,"熟":3353,"熱":3354,"熹":3355,"熾":3356,"燁":3357,"燃":3358,"燈":3359,"燎":3360,"燐":3361,"燒":3362,"燔":3363,"燕":3364,"燙":3365,"營":3366,"燥":3367,"燦":3368,"燧":3369,"燭":3370,"燮":3371,"燻":3372,"燾":3373,"爀":3374,"爆":3375,"爐":3376,"爛":3377,"爪":3378,"爬":3379,"爭":3380,"爱":3381,"爲":3382,"爵":3383,"父":3384,"爺":3385,"爻":3386,"爽":3387,"爾":3388,"牆":3389,"片":3390,"版":3391,"牌":3392,"牒":3393,"牓":3394,"牖":3395,"牘":3396,"牙":3397,"牛":3398,"牝":3399,"牟":3400,"牡":3401,"牢":3402,"牦":3403,"牧":3404,"物":3405,"牲":3406,"特":3407,"牽":3408,"犀":3409,"犁":3410,"犢":3411,"犧":3412,"犬":3413,"犯":3414,"狀":3415,"狂":3416,"狄":3417,"狎":3418,"狐":3419,"狗":3420,"狙":3421,"狡":3422,"狧":3423,"狩":3424,"狸":3425,"狹":3426,"狼":3427,"猛":3428,"猜":3429,"猝":3430,"猥":3431,"猪":3432,"猫":3433,"猶":3434,"猷":3435,"猾":3436,"猿":3437,"獄":3438,"獅":3439,"獎":3440,"獐":3441,"獒":3442,"獨":3443,"獪":3444,"獲":3445,"獵":3446,"獸":3447,"獺":3448,"獻":3449,"玄":3450,"玆":3451,"率":3452,"玉":3453,"王":3454,"玔":3455,"玖":3456,"玗":3457,"玟":3458,"玩":3459,"环":3460,"玲":3461,"玹":3462,"珀":3463,"珂":3464,"珈":3465,"珉":3466,"珊":3467,"珍":3468,"珏":3469,"珖":3470,"珝":3471,"珞":3472,"珠":3473,"珣":3474,"珥":3475,"珦":3476,"珩":3477,"珪":3478,"班":3479,"現":3480,"球":3481,"琅":3482,"理":3483,"琉":3484,"琊":3485,"琛":3486,"琢":3487,"琥":3488,"琦":3489,"琨":3490,"琪":3491,"琬":3492,"琮":3493,"琯":3494,"琲":3495,"琳":3496,"琴":3497,"琵":3498,"琶":3499,"琺":3500,"琼":3501,"琿":3502,"瑀":3503,"瑄":3504,"瑋":3505,"瑕":3506,"瑙":3507,"瑚":3508,"瑛":3509,"瑜":3510,"瑞":3511,"瑟":3512,"瑠":3513,"瑤":3514,"瑥":3515,"瑩":3516,"瑪":3517,"瑰":3518,"瑾":3519,"璂":3520,"璃":3521,"璇":3522,"璉":3523,"璋":3524,"璘":3525,"璜":3526,"璞":3527,"璡":3528,"璣":3529,"璧":3530,"璨":3531,"環":3532,"璽":3533,"璿":3534,"瓊":3535,"瓏":3536,"瓔":3537,"瓚":3538,"瓜":3539,"瓠":3540,"瓢":3541,"瓣":3542,"瓦":3543,"瓮":3544,"瓷":3545,"甁":3546,"甄":3547,"甑":3548,"甕":3549,"甘":3550,"甚":3551,"甛":3552,"甜":3553,"生":3554,"産":3555,"用":3556,"甪":3557,"甫":3558,"甬":3559,"田":3560,"由":3561,"甲":3562,"申":3563,"男":3564,"甸":3565,"町":3566,"画":3567,"界":3568,"畏":3569,"畑":3570,"畓":3571,"畔":3572,"留":3573,"畜":3574,"畝":3575,"畢":3576,"略":3577,"番":3578,"畫":3579,"畯":3580,"異":3581,"畵":3582,"當":3583,"畺":3584,"畿":3585,"疆":3586,"疇":3587,"疊":3588,"疋":3589,"疎":3590,"疏":3591,"疑":3592,"疒":3593,"疝":3594,"疥":3595,"疫":3596,"疱":3597,"疲":3598,"疵":3599,"疸":3600,"疹":3601,"疽":3602,"疾":3603,"病":3604,"症":3605,"痒":3606,"痔":3607,"痕":3608,"痘":3609,"痛":3610,"痢":3611,"痰":3612,"痲":3613,"痴":3614,"痺":3615,"痼":3616,"瘀":3617,"瘋":3618,"瘍":3619,"瘟":3620,"瘡":3621,"瘦":3622,"瘧":3623,"瘻":3624,"療":3625,"癌":3626,"癎":3627,"癒":3628,"癖":3629,"癡":3630,"癩":3631,"癬":3632,"癰":3633,"癸":3634,"登":3635,"發":3636,"白":3637,"百":3638,"皁":3639,"的":3640,"皆":3641,"皇":3642,"皎":3643,"皐":3644,"皓":3645,"皮":3646,"皿":3647,"盂":3648,"盃":3649,"盆":3650,"盈":3651,"益":3652,"盐":3653,"盒":3654,"盖":3655,"盛":3656,"盜":3657,"盞":3658,"盟":3659,"盡":3660,"監":3661,"盤":3662,"盧":3663,"目":3664,"盲":3665,"直":3666,"相":3667,"盾":3668,"省":3669,"眄":3670,"眉":3671,"看":3672,"県":3673,"眞":3674,"眠":3675,"眸":3676,"眺":3677,"眼":3678,"着":3679,"睛":3680,"睡":3681,"督":3682,"睦":3683,"睹":3684,"睾":3685,"睿":3686,"瞋":3687,"瞑":3688,"瞞":3689,"瞬":3690,"瞭":3691,"瞰":3692,"瞳":3693,"瞻":3694,"瞼":3695,"瞿":3696,"矗":3697,"矛":3698,"矜":3699,"矢":3700,"矣":3701,"知":3702,"矩":3703,"短":3704,"矯":3705,"石":3706,"码":3707,"砂":3708,"砒":3709,"研":3710,"砥":3711,"砧":3712,"砭":3713,"砲":3714,"破":3715,"硅":3716,"硏":3717,"硫":3718,"硬":3719,"硯":3720,"碁":3721,"碍":3722,"碎":3723,"碑":3724,"碓":3725,"碗":3726,"碣":3727,"碧":3728,"碩":3729,"確":3730,"碻":3731,"碾":3732,"磁":3733,"磊":3734,"磋":3735,"磎":3736,"磐":3737,"磚":3738,"磨":3739,"磬":3740,"磯":3741,"磻":3742,"礁":3743,"礎":3744,"礦":3745,"礫":3746,"示":3747,"礼":3748,"礽":3749,"社":3750,"祀":3751,"祁":3752,"祇":3753,"祈":3754,"祉":3755,"祐":3756,"祕":3757,"祖":3758,"祗":3759,"祚":3760,"祜":3761,"祝":3762,"神":3763,"祠":3764,"祢":3765,"祥":3766,"票":3767,"祭":3768,"祺":3769,"祿":3770,"禁":3771,"禍":3772,"禎":3773,"福":3774,"禔":3775,"禦":3776,"禧":3777,"禪":3778,"禮":3779,"禱":3780,"禹":3781,"禽":3782,"禾":3783,"禿":3784,"秀":3785,"私":3786,"秉":3787,"秊":3788,"秋":3789,"科":3790,"秒":3791,"秘":3792,"租":3793,"秦":3794,"秧":3795,"秩":3796,"移":3797,"稀":3798,"稅":3799,"稈":3800,"程":3801,"稍":3802,"稔":3803,"稗":3804,"稚":3805,"稜":3806,"稟":3807,"種":3808,"稱":3809,"稷":3810,"稻":3811,"稼":3812,"稽":3813,"稿":3814,"穀":3815,"穆":3816,"積":3817,"穎":3818,"穗":3819,"穡":3820,"穢":3821,"穩":3822,"穴":3823,"究":3824,"穹":3825,"空":3826,"穽":3827,"穿":3828,"突":3829,"窈":3830,"窒":3831,"窓":3832,"窕":3833,"窖":3834,"窗":3835,"窘":3836,"窟":3837,"窠":3838,"窩":3839,"窪":3840,"窮":3841,"窯":3842,"窺":3843,"竇":3844,"竊":3845,"立":3846,"站":3847,"竜":3848,"竝":3849,"竟":3850,"章":3851,"竣":3852,"童":3853,"竪":3854,"竭":3855,"端":3856,"競":3857,"竷":3858,"竹":3859,"竺":3860,"竽":3861,"竿":3862,"笈":3863,"笏":3864,"笑":3865,"笙":3866,"笛":3867,"笞":3868,"笠":3869,"符":3870,"第":3871,"笹":3872,"筅":3873,"筆":3874,"等":3875,"筋":3876,"筌":3877,"筍":3878,"筏":3879,"筑":3880,"筒":3881,"答":3882,"策":3883,"筠":3884,"筮":3885,"筵":3886,"箇":3887,"箋":3888,"箎":3889,"箏":3890,"箔":3891,"箕":3892,"算":3893,"箚":3894,"管":3895,"箭":3896,"箱":3897,"箴":3898,"箸":3899,"節":3900,"範":3901,"篆":3902,"篇":3903,"築":3904,"篔":3905,"篠":3906,"篤":3907,"篪":3908,"簇":3909,"簞":3910,"簟":3911,"簡":3912,"簧":3913,"簪":3914,"簫":3915,"簹":3916,"簾":3917,"簿":3918,"籃":3919,"籌":3920,"籍":3921,"籠":3922,"籬":3923,"米":3924,"粉":3925,"粒":3926,"粗":3927,"粘":3928,"粟":3929,"粤":3930,"粥":3931,"粧":3932,"粮":3933,"粱":3934,"粹":3935,"精":3936,"糊":3937,"糖":3938,"糜":3939,"糞":3940,"糟":3941,"糠":3942,"糧":3943,"糸":3944,"系":3945,"糾":3946,"紀":3947,"紂":3948,"約":3949,"紅":3950,"紊":3951,"紋":3952,"納":3953,"紐":3954,"紓":3955,"純":3956,"紗":3957,"紘":3958,"紙":3959,"級":3960,"紛":3961,"素":3962,"紡":3963,"索":3964,"紫":3965,"紬":3966,"累":3967,"細":3968,"紳":3969,"紹":3970,"紺":3971,"終":3972,"絃":3973,"組":3974,"絆":3975,"結":3976,"絞":3977,"絡":3978,"絢":3979,"給":3980,"絨":3981,"絮":3982,"統":3983,"絲":3984,"絳":3985,"絵":3986,"絶":3987,"絹":3988,"綏":3989,"經":3990,"続":3991,"綜":3992,"綠":3993,"綢":3994,"綦":3995,"綬":3996,"維":3997,"綱":3998,"網":3999,"綴":4000,"綵":4001,"綸":4002,"綺":4003,"綽":4004,"綾":4005,"綿":4006,"緊":4007,"緖":4008,"緘":4009,"線":4010,"緝":4011,"緞":4012,"締":4013,"緡":4014,"緣":4015,"編":4016,"緩":4017,"緬":4018,"緯":4019,"練":4020,"緻":4021,"縁":4022,"縛":4023,"縝":4024,"縞":4025,"縡":4026,"縣":4027,"縫":4028,"縮":4029,"縱":4030,"總":4031,"績":4032,"繁":4033,"繆":4034,"織":4035,"繕":4036,"繞":4037,"繡":4038,"繩":4039,"繪":4040,"繫":4041,"繭":4042,"繹":4043,"繼":4044,"纂":4045,"續":4046,"纏":4047,"纓":4048,"纔":4049,"纖":4050,"纘":4051,"红":4052,"约":4053,"绝":4054,"综":4055,"绿":4056,"缸":4057,"缺":4058,"网":4059,"罔":4060,"罕":4061,"罡":4062,"罪":4063,"罫":4064,"置":4065,"罰":4066,"署":4067,"罷":4068,"羅":4069,"羈":4070,"羊":4071,"羌":4072,"美":4073,"羗":4074,"羞":4075,"群":4076,"羨":4077,"義":4078,"羲":4079,"羹":4080,"羽":4081,"翁":4082,"翅":4083,"翊":4084,"翎":4085,"習":4086,"翔":4087,"翕":4088,"翟":4089,"翠":4090,"翡":4091,"翫":4092,"翰":4093,"翼":4094,"耀":4095,"老":4096,"考":4097,"者":4098,"耆":4099,"而":4100,"耐":4101,"耕":4102,"耗":4103,"耘":4104,"耭":4105,"耳":4106,"耶":4107,"耽":4108,"耿":4109,"聃":4110,"聆":4111,"聊":4112,"联":4113,"聖":4114,"聘":4115,"聚":4116,"聞":4117,"聯":4118,"聰":4119,"聲":4120,"聶":4121,"職":4122,"聽":4123,"聾":4124,"聿":4125,"肄":4126,"肅":4127,"肆":4128,"肇":4129,"肉":4130,"肋":4131,"肌":4132,"肖":4133,"肛":4134,"肝":4135,"股":4136,"肢":4137,"肥":4138,"肩":4139,"肪":4140,"肯":4141,"育":4142,"肴":4143,"肺":4144,"胃":4145,"胄":4146,"背":4147,"胎":4148,"胚":4149,"胞":4150,"胡":4151,"胤":4152,"胥":4153,"胱":4154,"胴":4155,"胸":4156,"能":4157,"脂":4158,"脅":4159,"脆":4160,"脇":4161,"脈":4162,"脉":4163,"脊":4164,"脘":4165,"脚":4166,"脛":4167,"脣":4168,"脩":4169,"脫":4170,"脯":4171,"脾":4172,"腋":4173,"腎":4174,"腐":4175,"腑":4176,"腔":4177,"腕":4178,"腥":4179,"腦":4180,"腫":4181,"腰":4182,"腱":4183,"腸":4184,"腹":4185,"腺":4186,"腾":4187,"腿":4188,"膀":4189,"膈":4190,"膏":4191,"膚":4192,"膜":4193,"膝":4194,"膠":4195,"膣":4196,"膨":4197,"膳":4198,"膵":4199,"膺":4200,"膽":4201,"膾":4202,"膿":4203,"臀":4204,"臂":4205,"臆":4206,"臍":4207,"臘":4208,"臟":4209,"臣":4210,"臥":4211,"臧":4212,"臨":4213,"自":4214,"臭":4215,"臯":4216,"至":4217,"致":4218,"臺":4219,"臻":4220,"臼":4221,"舅":4222,"與":4223,"興":4224,"舊":4225,"舌":4226,"舍":4227,"舎":4228,"舒":4229,"舘":4230,"舛":4231,"舜":4232,"舞":4233,"舟":4234,"舡":4235,"航":4236,"舫":4237,"般":4238,"舵":4239,"舶":4240,"舷":4241,"船":4242,"艀":4243,"艇":4244,"艙":4245,"艤":4246,"艦":4247,"艮":4248,"良":4249,"艱":4250,"色":4251,"艶":4252,"艸":4253,"艾":4254,"芋":4255,"芍":4256,"芒":4257,"芙":4258,"芚":4259,"芝":4260,"芥":4261,"芦":4262,"芪":4263,"芬":4264,"芭":4265,"芮":4266,"芯":4267,"花":4268,"芳":4269,"芸":4270,"芹":4271,"芻":4272,"芽":4273,"苏":4274,"苑":4275,"苔":4276,"苗":4277,"苛":4278,"苞":4279,"苟":4280,"若":4281,"苦":4282,"苧":4283,"苫":4284,"英":4285,"苹":4286,"茂":4287,"范":4288,"茅":4289,"茉":4290,"茗":4291,"茨":4292,"茫":4293,"茯":4294,"茱":4295,"茵":4296,"茶":4297,"茸":4298,"茹":4299,"荀":4300,"草":4301,"荊":4302,"荏":4303,"荒":4304,"荷":4305,"荻":4306,"莉":4307,"莊":4308,"莎":4309,"莖":4310,"莘":4311,"莞":4312,"莩":4313,"莫":4314,"莽":4315,"菁":4316,"菅":4317,"菊":4318,"菌":4319,"菓":4320,"菜":4321,"菩":4322,"華":4323,"菱":4324,"菲":4325,"菴":4326,"菹":4327,"菽":4328,"萃":4329,"萄":4330,"萊":4331,"萌":4332,"萍":4333,"萎":4334,"萩":4335,"萬":4336,"萱":4337,"萸":4338,"落":4339,"葆":4340,"葉":4341,"著":4342,"葛":4343,"葡":4344,"董":4345,"葦":4346,"葫":4347,"葬":4348,"葵":4349,"葺":4350,"蒋":4351,"蒐":4352,"蒑":4353,"蒙":4354,"蒜":4355,"蒯":4356,"蒲":4357,"蒴":4358,"蒸":4359,"蒻":4360,"蒼":4361,"蓀":4362,"蓄":4363,"蓉":4364,"蓋":4365,"蓝":4366,"蓬":4367,"蓮":4368,"蓴":4369,"蔑":4370,"蔓":4371,"蔘":4372,"蔚":4373,"蔡":4374,"蔣":4375,"蔥":4376,"蔦":4377,"蔬":4378,"蔭":4379,"蔵":4380,"蔽":4381,"蔿":4382,"蕁":4383,"蕃":4384,"蕉":4385,"蕎":4386,"蕙":4387,"蕨":4388,"蕩":4389,"蕪":4390,"蕭":4391,"蕾":4392,"薀":4393,"薄":4394,"薇":4395,"薈":4396,"薑":4397,"薔":4398,"薛":4399,"薦":4400,"薨":4401,"薩":4402,"薪":4403,"薯":4404,"薰":4405,"薺":4406,"藁":4407,"藉":4408,"藍":4409,"藏":4410,"藜":4411,"藝":4412,"藤":4413,"藥":4414,"藩":4415,"藪":4416,"藻":4417,"蘂":4418,"蘆":4419,"蘇":4420,"蘊":4421,"蘋":4422,"蘭":4423,"蘿":4424,"虎":4425,"虐":4426,"虔":4427,"處":4428,"虛":4429,"虜":4430,"虞":4431,"號":4432,"虧":4433,"虹":4434,"蚊":4435,"蚌":4436,"蚩":4437,"蛇":4438,"蛋":4439,"蛙":4440,"蛟":4441,"蛤":4442,"蛻":4443,"蜀":4444,"蜂":4445,"蜚":4446,"蜜":4447,"蝕":4448,"蝗":4449,"蝟":4450,"蝦":4451,"蝶":4452,"蝸":4453,"螂":4454,"融":4455,"螢":4456,"螣":4457,"螳":4458,"螺":4459,"蟄":4460,"蟠":4461,"蟬":4462,"蟲":4463,"蟹":4464,"蟻":4465,"蟾":4466,"蠅":4467,"蠟":4468,"蠢":4469,"蠱":4470,"蠶":4471,"蠹":4472,"蠻":4473,"血":4474,"衆":4475,"行":4476,"衍":4477,"衒":4478,"術":4479,"街":4480,"衙":4481,"衛":4482,"衝":4483,"衡":4484,"衢":4485,"衣":4486,"表":4487,"衫":4488,"衰":4489,"衲":4490,"衷":4491,"衾":4492,"衿":4493,"袁":4494,"袈":4495,"袋":4496,"袍":4497,"袐":4498,"袒":4499,"袖":4500,"袞":4501,"被":4502,"裁":4503,"裂":4504,"裏":4505,"裔":4506,"裕":4507,"補":4508,"裝":4509,"裟":4510,"裡":4511,"裨":4512,"裳":4513,"裴":4514,"裵":4515,"裸":4516,"製":4517,"複":4518,"褐":4519,"褒":4520,"褓":4521,"褙":4522,"褥":4523,"褸":4524,"褻":4525,"襄":4526,"襟":4527,"襲":4528,"西":4529,"要":4530,"覆":4531,"覇":4532,"見":4533,"規":4534,"覓":4535,"視":4536,"覚":4537,"覡":4538,"覩":4539,"親":4540,"覺":4541,"覽":4542,"觀":4543,"角":4544,"解":4545,"觴":4546,"觸":4547,"言":4548,"訂":4549,"訃":4550,"計":4551,"訊":4552,"訌":4553,"討":4554,"訓":4555,"託":4556,"記":4557,"訟":4558,"訣":4559,"訥":4560,"訪":4561,"設":4562,"許":4563,"訴":4564,"訶":4565,"診":4566,"註":4567,"証":4568,"詐":4569,"詔":4570,"評":4571,"詞":4572,"詠":4573,"詢":4574,"詣":4575,"試":4576,"詩":4577,"詭":4578,"詮":4579,"詰":4580,"話":4581,"該":4582,"詳":4583,"詵":4584,"詹":4585,"誅":4586,"誇":4587,"誌":4588,"認":4589,"誓":4590,"誕":4591,"誘":4592,"語":4593,"誠":4594,"誡":4595,"誣":4596,"誤":4597,"誥":4598,"誦":4599,"誨":4600,"說":4601,"読":4602,"誰":4603,"課":4604,"誹":4605,"誼":4606,"誾":4607,"調":4608,"諂":4609,"談":4610,"請":4611,"諍":4612,"諒":4613,"論":4614,"諛":4615,"諜":4616,"諡":4617,"諦":4618,"諧":4619,"諫":4620,"諭":4621,"諮":4622,"諱":4623,"諷":4624,"諸":4625,"諺":4626,"諼":4627,"諾":4628,"謀":4629,"謁":4630,"謂":4631,"謌":4632,"謎":4633,"謔":4634,"謖":4635,"謗":4636,"謙":4637,"講":4638,"謝":4639,"謠":4640,"謨":4641,"謫":4642,"謬":4643,"謳":4644,"謹":4645,"譁":4646,"證":4647,"譎":4648,"譏":4649,"譖":4650,"識":4651,"譚":4652,"譜":4653,"警":4654,"譬":4655,"譯":4656,"議":4657,"護":4658,"譽":4659,"讀":4660,"變":4661,"讐":4662,"讒":4663,"讓":4664,"讖":4665,"讚":4666,"订":4667,"认":4668,"议":4669,"讯":4670,"诗":4671,"话":4672,"说":4673,"谢":4674,"谨":4675,"谭":4676,"谷":4677,"谿":4678,"豆":4679,"豈":4680,"豉":4681,"豊":4682,"豐":4683,"豕":4684,"豚":4685,"象":4686,"豪":4687,"豫":4688,"豹":4689,"貂":4690,"貊":4691,"貌":4692,"貝":4693,"貞":4694,"負":4695,"財":4696,"貢":4697,"貧":4698,"貨":4699,"販":4700,"貪":4701,"貫":4702,"責":4703,"貯":4704,"貰":4705,"貳":4706,"貴":4707,"貶":4708,"買":4709,"貸":4710,"費":4711,"貿":4712,"賀":4713,"賁":4714,"賂":4715,"賃":4716,"資":4717,"賈":4718,"賊":4719,"賓":4720,"賚":4721,"賜":4722,"賞":4723,"賠":4724,"賢":4725,"賣":4726,"賤":4727,"賦":4728,"質":4729,"賴":4730,"購":4731,"賽":4732,"贄":4733,"贅":4734,"贈":4735,"贊":4736,"贍":4737,"贓":4738,"贖":4739,"贛":4740,"贝":4741,"货":4742,"购":4743,"赏":4744,"赛":4745,"赣":4746,"赤":4747,"赦":4748,"赫":4749,"走":4750,"赳":4751,"赴":4752,"起":4753,"超":4754,"越":4755,"趙":4756,"趣":4757,"趨":4758,"足":4759,"趺":4760,"趾":4761,"跃":4762,"跆":4763,"跋":4764,"跌":4765,"跏":4766,"跑":4767,"跛":4768,"距":4769,"跡":4770,"跨":4771,"跪":4772,"路":4773,"跳":4774,"踊":4775,"踏":4776,"踐":4777,"踞":4778,"踪":4779,"踰":4780,"蹄":4781,"蹈":4782,"蹉":4783,"蹊":4784,"蹕":4785,"蹟":4786,"蹠":4787,"蹴":4788,"躁":4789,"躅":4790,"躍":4791,"躑":4792,"身":4793,"躬":4794,"軀":4795,"車":4796,"軋":4797,"軌":4798,"軍":4799,"軒":4800,"軟":4801,"転":4802,"軫":4803,"軸":4804,"軻":4805,"軾":4806,"較":4807,"載":4808,"輒":4809,"輓":4810,"輔":4811,"輕":4812,"輛":4813,"輝":4814,"輦":4815,"輧":4816,"輩":4817,"輪":4818,"輯":4819,"輸":4820,"輻":4821,"輾":4822,"輿":4823,"轄":4824,"轅":4825,"轉":4826,"轍":4827,"轎":4828,"轟":4829,"车":4830,"辉":4831,"辛":4832,"辜":4833,"辟":4834,"辣":4835,"辦":4836,"辨":4837,"辭":4838,"辮":4839,"辯":4840,"辰":4841,"辱":4842,"農":4843,"辶":4844,"边":4845,"辺":4846,"辻":4847,"辽":4848,"迂":4849,"迅":4850,"迎":4851,"运":4852,"近":4853,"返":4854,"这":4855,"远":4856,"连":4857,"迦":4858,"迪":4859,"迫":4860,"述":4861,"迷":4862,"迹":4863,"追":4864,"退":4865,"送":4866,"适":4867,"逃":4868,"逅":4869,"逆":4870,"逍":4871,"透":4872,"逐":4873,"逑":4874,"途":4875,"逕":4876,"這":4877,"通":4878,"逝":4879,"逞":4880,"速":4881,"造":4882,"逢":4883,"連":4884,"週":4885,"進":4886,"逵":4887,"逸":4888,"逼":4889,"逾":4890,"遁":4891,"遂":4892,"遄":4893,"遇":4894,"遊":4895,"運":4896,"遍":4897,"過":4898,"遐":4899,"道":4900,"達":4901,"違":4902,"遙":4903,"遜":4904,"遞":4905,"遠":4906,"遡":4907,"遣":4908,"遥":4909,"適":4910,"遭":4911,"遮":4912,"遯":4913,"遲":4914,"遵":4915,"遷":4916,"選":4917,"遺":4918,"遼":4919,"避":4920,"邀":4921,"邁":4922,"邂":4923,"還":4924,"邊":4925,"邏":4926,"邑":4927,"邕":4928,"邙":4929,"邢":4930,"那":4931,"邦":4932,"邪":4933,"邮":4934,"邯":4935,"邱":4936,"邵":4937,"邸":4938,"邻":4939,"郁":4940,"郊":4941,"郎":4942,"郞":4943,"郡":4944,"部":4945,"郭":4946,"郵":4947,"都":4948,"鄂":4949,"鄒":4950,"鄕":4951,"鄙":4952,"鄧":4953,"鄭":4954,"酉":4955,"酊":4956,"酋":4957,"酌":4958,"配":4959,"酎":4960,"酒":4961,"酘":4962,"酩":4963,"酬":4964,"酱":4965,"酵":4966,"酷":4967,"酸":4968,"醇":4969,"醉":4970,"醋":4971,"醒":4972,"醘":4973,"醜":4974,"醢":4975,"醫":4976,"醬":4977,"醮":4978,"醯":4979,"醱":4980,"醴":4981,"醵":4982,"醸":4983,"釀":4984,"采":4985,"釈":4986,"釉":4987,"釋":4988,"里":4989,"重":4990,"野":4991,"量":4992,"釐":4993,"金":4994,"釗":4995,"釘":4996,"釜":4997,"針":4998,"釣":4999,"釧":5000,"鈍":5001,"鈑":5002,"鈕":5003,"鈗":5004,"鈞":5005,"鈴":5006,"鈺":5007,"鈿":5008,"鉄":5009,"鉅":5010,"鉉":5011,"鉗":5012,"鉛":5013,"鉢":5014,"鉤":5015,"鉾":5016,"銀":5017,"銃":5018,"銅":5019,"銑":5020,"銓":5021,"銖":5022,"銘":5023,"銜":5024,"銳":5025,"銷":5026,"銹":5027,"鋌":5028,"鋒":5029,"鋪":5030,"鋼":5031,"錄":5032,"錐":5033,"錘":5034,"錚":5035,"錠":5036,"錢":5037,"錦":5038,"錨":5039,"錫":5040,"錮":5041,"錯":5042,"鍊":5043,"鍋":5044,"鍍":5045,"鍛":5046,"鍥":5047,"鍮":5048,"鍵":5049,"鍼":5050,"鍾":5051,"鎂":5052,"鎌":5053,"鎔":5054,"鎖":5055,"鎣":5056,"鎧":5057,"鎬":5058,"鎭":5059,"鎮":5060,"鎰":5061,"鏃":5062,"鏞":5063,"鏡":5064,"鏤":5065,"鐘":5066,"鐵":5067,"鐸":5068,"鑄":5069,"鑑":5070,"鑒":5071,"鑛":5072,"鑫":5073,"鑿":5074,"钢":5075,"钱":5076,"铁":5077,"银":5078,"锅":5079,"锡":5080,"锦":5081,"長":5082,"长":5083,"門":5084,"閃":5085,"閉":5086,"開":5087,"閏":5088,"閑":5089,"閒":5090,"間":5091,"閔":5092,"閘":5093,"関":5094,"閣":5095,"閤":5096,"閥":5097,"閨":5098,"閩":5099,"閭":5100,"閱":5101,"閻":5102,"閼":5103,"闇":5104,"闊":5105,"闌":5106,"闔":5107,"闕":5108,"闖":5109,"關":5110,"闡":5111,"闢":5112,"闻":5113,"阜":5114,"阪":5115,"阮":5116,"防":5117,"阳":5118,"阻":5119,"阿":5120,"陀":5121,"陂":5122,"附":5123,"际":5124,"陆":5125,"陈":5126,"陋":5127,"陌":5128,"降":5129,"限":5130,"陕":5131,"陛":5132,"陜":5133,"陝":5134,"陟":5135,"院":5136,"陣":5137,"除":5138,"陪":5139,"陰":5140,"陳":5141,"陵":5142,"陶":5143,"陷":5144,"陸":5145,"陽":5146,"隅":5147,"隆":5148,"隈":5149,"隊":5150,"隋":5151,"隍":5152,"階":5153,"隔":5154,"隕":5155,"隘":5156,"隙":5157,"際":5158,"障":5159,"隣":5160,"隧":5161,"隨":5162,"險":5163,"隱":5164,"隴":5165,"隷":5166,"隹":5167,"隻":5168,"雀":5169,"雁":5170,"雄":5171,"雅":5172,"集":5173,"雇":5174,"雉":5175,"雋":5176,"雌":5177,"雍":5178,"雕":5179,"雖":5180,"雙":5181,"雚":5182,"雛":5183,"雜":5184,"離":5185,"難":5186,"雨":5187,"雩":5188,"雪":5189,"雯":5190,"雲":5191,"零":5192,"雷":5193,"電":5194,"需":5195,"霆":5196,"震":5197,"霊":5198,"霍":5199,"霓":5200,"霖":5201,"霜":5202,"霞":5203,"霧":5204,"露":5205,"霸":5206,"霹":5207,"霽":5208,"靂":5209,"靄":5210,"靈":5211,"靑":5212,"青":5213,"靖":5214,"静":5215,"靜":5216,"非":5217,"靡":5218,"面":5219,"革":5220,"靭":5221,"靴":5222,"靷":5223,"靺":5224,"鞋":5225,"鞍":5226,"鞏":5227,"鞠":5228,"鞨":5229,"鞫":5230,"鞭":5231,"韋":5232,"韓":5233,"韜":5234,"韠":5235,"韩":5236,"音":5237,"韵":5238,"韶":5239,"韻":5240,"響":5241,"頁":5242,"頂":5243,"頃":5244,"項":5245,"順":5246,"須":5247,"頌":5248,"預":5249,"頑":5250,"頒":5251,"頓":5252,"領":5253,"頭":5254,"頸":5255,"頹":5256,"頻":5257,"顆":5258,"題":5259,"額":5260,"顎":5261,"顔":5262,"願":5263,"顚":5264,"類":5265,"顥":5266,"顧":5267,"顫":5268,"顯":5269,"顺":5270,"颜":5271,"風":5272,"飄":5273,"飇":5274,"风":5275,"飛":5276,"飜":5277,"飞":5278,"食":5279,"飢":5280,"飮":5281,"飯":5282,"飼":5283,"飽":5284,"飾":5285,"餃":5286,"餉":5287,"養":5288,"餌":5289,"餐":5290,"餓":5291,"餘":5292,"餠":5293,"館":5294,"饅":5295,"饉":5296,"饌":5297,"饍":5298,"饑":5299,"饒":5300,"饔":5301,"饗":5302,"饞":5303,"饰":5304,"首":5305,"香":5306,"馨":5307,"馬":5308,"馭":5309,"馮":5310,"馱":5311,"馳":5312,"馴":5313,"駁":5314,"駅":5315,"駐":5316,"駑":5317,"駒":5318,"駕":5319,"駝":5320,"駟":5321,"駢":5322,"駱":5323,"駿":5324,"騁":5325,"騈":5326,"騎":5327,"騏":5328,"騨":5329,"騰":5330,"騶":5331,"騷":5332,"驀":5333,"驃":5334,"驅":5335,"驍":5336,"驕":5337,"驗":5338,"驚":5339,"驛":5340,"驢":5341,"驤":5342,"驥":5343,"驪":5344,"马":5345,"骄":5346,"骆":5347,"骨":5348,"骸":5349,"髀":5350,"髓":5351,"體":5352,"高":5353,"髢":5354,"髮":5355,"鬆":5356,"鬚":5357,"鬪":5358,"鬱":5359,"鬼":5360,"魁":5361,"魂":5362,"魃":5363,"魄":5364,"魅":5365,"魏":5366,"魔":5367,"魚":5368,"魨":5369,"魯":5370,"鮎":5371,"鮑":5372,"鮓":5373,"鮟":5374,"鮮":5375,"鮸":5376,"鯉":5377,"鯖":5378,"鯤":5379,"鯨":5380,"鯰":5381,"鰌":5382,"鰍":5383,"鰒":5384,"鰕":5385,"鰲":5386,"鰻":5387,"鱇":5388,"鱗":5389,"鲜":5390,"鳥":5391,"鳧":5392,"鳩":5393,"鳳":5394,"鳴":5395,"鳶":5396,"鴛":5397,"鴦":5398,"鴨":5399,"鴻":5400,"鵑":5401,"鵝":5402,"鵠":5403,"鵬":5404,"鵲":5405,"鶩":5406,"鶯":5407,"鶴":5408,"鷄":5409,"鷗":5410,"鷲":5411,"鷸":5412,"鷹":5413,"鷺":5414,"鸞":5415,"鸽":5416,"鹮":5417,"鹹":5418,"鹽":5419,"鹿":5420,"麒":5421,"麓":5422,"麗":5423,"麝":5424,"麟":5425,"麤":5426,"麥":5427,"麴":5428,"麵":5429,"麺":5430,"麻":5431,"麾":5432,"黃":5433,"黄":5434,"黍":5435,"黎":5436,"黑":5437,"黒":5438,"黔":5439,"默":5440,"黙":5441,"黜":5442,"點":5443,"黨":5444,"鼈":5445,"鼎":5446,"鼓":5447,"鼠":5448,"鼪":5449,"鼻":5450,"鼽":5451,"齊":5452,"齋":5453,"齎":5454,"齒":5455,"齡":5456,"齧":5457,"龍":5458,"龐":5459,"龕":5460,"龙":5461,"龜":5462,"ꈍ":5463,"꒳":5464,"ꡓ":5465,"가":5466,"각":5467,"간":5468,"갇":5469,"갈":5470,"갉":5471,"갋":5472,"감":5473,"갑":5474,"값":5475,"갓":5476,"갔":5477,"강":5478,"갖":5479,"갗":5480,"갘":5481,"같":5482,"갚":5483,"갛":5484,"개":5485,"객":5486,"갠":5487,"갤":5488,"갬":5489,"갭":5490,"갯":5491,"갰":5492,"갱":5493,"갸":5494,"갹":5495,"갼":5496,"갾":5497,"걀":5498,"걋":5499,"걌":5500,"걍":5501,"걐":5502,"걔":5503,"걘":5504,"걜":5505,"거":5506,"걱":5507,"건":5508,"걷":5509,"걸":5510,"걺":5511,"검":5512,"겁":5513,"것":5514,"겄":5515,"겅":5516,"겆":5517,"겈":5518,"겉":5519,"겊":5520,"겋":5521,"게":5522,"겍":5523,"겐":5524,"겔":5525,"겜":5526,"겝":5527,"겟":5528,"겠":5529,"겡":5530,"겢":5531,"겧":5532,"겨":5533,"격":5534,"겪":5535,"견":5536,"겯":5537,"결":5538,"겳":5539,"겸":5540,"겹":5541,"겻":5542,"겼":5543,"경":5544,"겿":5545,"곁":5546,"계":5547,"곈":5548,"곌":5549,"곕":5550,"곗":5551,"곘":5552,"고":5553,"곡":5554,"곤":5555,"곧":5556,"골":5557,"곪":5558,"곬":5559,"곯":5560,"곰":5561,"곱":5562,"곳":5563,"공":5564,"곶":5565,"곸":5566,"곹":5567,"과":5568,"곽":5569,"곾":5570,"관":5571,"괄":5572,"괌":5573,"괏":5574,"광":5575,"괘":5576,"괜":5577,"괭":5578,"괴":5579,"괵":5580,"괸":5581,"괼":5582,"굄":5583,"굇":5584,"굉":5585,"교":5586,"굑":5587,"굔":5588,"굘":5589,"굚":5590,"굣":5591,"굥":5592,"굫":5593,"구":5594,"국":5595,"굮":5596,"군":5597,"굳":5598,"굴":5599,"굵":5600,"굶":5601,"굻":5602,"굼":5603,"굽":5604,"굿":5605,"궁":5606,"궂":5607,"궃":5608,"궈":5609,"궉":5610,"권":5611,"궐":5612,"궛":5613,"궜":5614,"궝":5615,"궤":5616,"궨":5617,"궩":5618,"궷":5619,"궼":5620,"귀":5621,"귁":5622,"귄":5623,"귈":5624,"귐":5625,"귑":5626,"귓":5627,"귕":5628,"규":5629,"균":5630,"귤":5631,"그":5632,"극":5633,"근":5634,"귿":5635,"글":5636,"긁":5637,"긇":5638,"금":5639,"급":5640,"긋":5641,"긍":5642,"긓":5643,"긔":5644,"긩":5645,"기":5646,"긱":5647,"긴":5648,"긷":5649,"길":5650,"김":5651,"깁":5652,"깃":5653,"깄":5654,"깅":5655,"깆":5656,"깊":5657,"까":5658,"깍":5659,"깎":5660,"깐":5661,"깔":5662,"깜":5663,"깝":5664,"깟":5665,"깠":5666,"깡":5667,"깢":5668,"깥":5669,"깨":5670,"깩":5671,"깬":5672,"깰":5673,"깵":5674,"깶":5675,"깸":5676,"깹":5677,"깻":5678,"깼":5679,"깽":5680,"꺄":5681,"꺅":5682,"꺆":5683,"꺞":5684,"꺠":5685,"꺼":5686,"꺽":5687,"꺾":5688,"껀":5689,"껄":5690,"껌":5691,"껍":5692,"껏":5693,"껐":5694,"껑":5695,"께":5696,"껜":5697,"껫":5698,"껭":5699,"껴":5700,"껸":5701,"꼇":5702,"꼈":5703,"꼍":5704,"꼐":5705,"꼬":5706,"꼭":5707,"꼰":5708,"꼴":5709,"꼼":5710,"꼽":5711,"꼿":5712,"꽁":5713,"꽂":5714,"꽃":5715,"꽈":5716,"꽉":5717,"꽌":5718,"꽐":5719,"꽜":5720,"꽝":5721,"꽤":5722,"꽥":5723,"꽹":5724,"꾀":5725,"꾄":5726,"꾐":5727,"꾕":5728,"꾜":5729,"꾳":5730,"꾸":5731,"꾹":5732,"꾼":5733,"꾿":5734,"꿀":5735,"꿁":5736,"꿃":5737,"꿇":5738,"꿈":5739,"꿉":5740,"꿋":5741,"꿍":5742,"꿎":5743,"꿏":5744,"꿔":5745,"꿕":5746,"꿘":5747,"꿧":5748,"꿨":5749,"꿩":5750,"꿰":5751,"꿱":5752,"꿴":5753,"꿸":5754,"뀀":5755,"뀄":5756,"뀌":5757,"뀐":5758,"뀔":5759,"뀜":5760,"뀝":5761,"뀡":5762,"뀨":5763,"뀰":5764,"끄":5765,"끅":5766,"끈":5767,"끊":5768,"끌":5769,"끎":5770,"끓":5771,"끔":5772,"끕":5773,"끗":5774,"끙":5775,"끝":5776,"끠":5777,"끼":5778,"끽":5779,"낀":5780,"낄":5781,"낌":5782,"낍":5783,"낏":5784,"낐":5785,"낑":5786,"나":5787,"낙":5788,"낚":5789,"난":5790,"낟":5791,"날":5792,"낡":5793,"낢":5794,"낣":5795,"남":5796,"납":5797,"낫":5798,"났":5799,"낭":5800,"낮":5801,"낯":5802,"낰":5803,"낱":5804,"낳":5805,"내":5806,"낵":5807,"낸":5808,"낼":5809,"냄":5810,"냅":5811,"냇":5812,"냈":5813,"냉":5814,"냐":5815,"냑":5816,"냔":5817,"냘":5818,"냠":5819,"냥":5820,"냨":5821,"넀":5822,"너":5823,"넉":5824,"넋":5825,"넌":5826,"널":5827,"넒":5828,"넓":5829,"넗":5830,"넘":5831,"넙":5832,"넛":5833,"넜":5834,"넝":5835,"넡":5836,"넣":5837,"네":5838,"넥":5839,"넨":5840,"넬":5841,"넴":5842,"넵":5843,"넷":5844,"넸":5845,"넹":5846,"넼":5847,"녀":5848,"녁":5849,"년":5850,"녈":5851,"념":5852,"녑":5853,"녓":5854,"녔":5855,"녕":5856,"녘":5857,"녛":5858,"녜":5859,"녠":5860,"녤":5861,"노":5862,"녹":5863,"논":5864,"놀":5865,"놂":5866,"놈":5867,"놉":5868,"놋":5869,"농":5870,"높":5871,"놓":5872,"놔":5873,"놨":5874,"뇌":5875,"뇐":5876,"뇔":5877,"뇜":5878,"뇨":5879,"뇬":5880,"뇰":5881,"뇸":5882,"뇻":5883,"뇽":5884,"누":5885,"눅":5886,"눈":5887,"눋":5888,"눌":5889,"눔":5890,"눕":5891,"눗":5892,"눙":5893,"눝":5894,"눞":5895,"눟":5896,"눠":5897,"눴":5898,"눹":5899,"뉑":5900,"뉘":5901,"뉜":5902,"뉠":5903,"뉨":5904,"뉩":5905,"뉴":5906,"뉵":5907,"뉸":5908,"뉼":5909,"늄":5910,"늅":5911,"늇":5912,"늉":5913,"느":5914,"늑":5915,"는":5916,"늘":5917,"늙":5918,"늠":5919,"늣":5920,"능":5921,"늦":5922,"늪":5923,"늫":5924,"늬":5925,"늴":5926,"닁":5927,"니":5928,"닉":5929,"닌":5930,"닏":5931,"닐":5932,"님":5933,"닙":5934,"닛":5935,"닝":5936,"닞":5937,"닠":5938,"닢":5939,"다":5940,"닥":5941,"닦":5942,"닧":5943,"단":5944,"닫":5945,"달":5946,"닭":5947,"닮":5948,"닯":5949,"닳":5950,"담":5951,"답":5952,"닷":5953,"닸":5954,"당":5955,"닺":5956,"닻":5957,"닼":5958,"닿":5959,"대":5960,"댁":5961,"댄":5962,"댈":5963,"댐":5964,"댑":5965,"댓":5966,"댔":5967,"댕":5968,"댜":5969,"댱":5970,"더":5971,"덕":5972,"덖":5973,"던":5974,"덛":5975,"덜":5976,"덞":5977,"덟":5978,"덤":5979,"덥":5980,"덧":5981,"덨":5982,"덩":5983,"덫":5984,"덬":5985,"덮":5986,"데":5987,"덱":5988,"덴":5989,"델":5990,"뎀":5991,"뎁":5992,"뎃":5993,"뎄":5994,"뎅":5995,"뎈":5996,"뎌":5997,"뎍":5998,"뎐":5999,"뎔":6000,"뎠":6001,"뎡":6002,"뎨":6003,"뎬":6004,"도":6005,"독":6006,"돈":6007,"돋":6008,"돌":6009,"돎":6010,"돐":6011,"돔":6012,"돕":6013,"돗":6014,"동":6015,"돛":6016,"돝":6017,"돟":6018,"돠":6019,"돤":6020,"돨":6021,"돵":6022,"돼":6023,"됏":6024,"됐":6025,"됑":6026,"되":6027,"됙":6028,"된":6029,"됟":6030,"될":6031,"됨":6032,"됩":6033,"됫":6034,"됬":6035,"됭":6036,"됴":6037,"됵":6038,"둉":6039,"두":6040,"둑":6041,"둔":6042,"둗":6043,"둘":6044,"둙":6045,"둠":6046,"둡":6047,"둣":6048,"둥":6049,"둬":6050,"둴":6051,"뒀":6052,"뒈":6053,"뒝":6054,"뒤":6055,"뒨":6056,"뒷":6057,"뒹":6058,"듀":6059,"듁":6060,"듄":6061,"듈":6062,"듐":6063,"듓":6064,"듕":6065,"드":6066,"득":6067,"든":6068,"듣":6069,"들":6070,"듦":6071,"듬":6072,"듭":6073,"듯":6074,"등":6075,"듸":6076,"디":6077,"딕":6078,"딘":6079,"딛":6080,"딜":6081,"딤":6082,"딥":6083,"딧":6084,"딨":6085,"딩":6086,"딪":6087,"딯":6088,"따":6089,"딱":6090,"딴":6091,"딸":6092,"땀":6093,"땁":6094,"땃":6095,"땄":6096,"땅":6097,"땋":6098,"때":6099,"땐":6100,"땔":6101,"땜":6102,"땝":6103,"땟":6104,"땠":6105,"땡":6106,"땨":6107,"땽":6108,"떄":6109,"떈":6110,"떠":6111,"떡":6112,"떢":6113,"떤":6114,"떨":6115,"떪":6116,"떫":6117,"떮":6118,"떰":6119,"떱":6120,"떳":6121,"떴":6122,"떵":6123,"떻":6124,"떼":6125,"떽":6126,"뗀":6127,"뗄":6128,"뗌":6129,"뗍":6130,"뗏":6131,"뗐":6132,"뗑":6133,"뗘":6134,"뗝":6135,"뗬":6136,"뗴":6137,"뗼":6138,"또":6139,"똑":6140,"똔":6141,"똘":6142,"똠":6143,"똡":6144,"똣":6145,"똥":6146,"똬":6147,"똭":6148,"뙇":6149,"뙈":6150,"뙜":6151,"뙤":6152,"뙨":6153,"뚀":6154,"뚁":6155,"뚄":6156,"뚜":6157,"뚝":6158,"뚠":6159,"뚤":6160,"뚫":6161,"뚬":6162,"뚱":6163,"뛔":6164,"뛰":6165,"뛴":6166,"뛸":6167,"뜀":6168,"뜁":6169,"뜌":6170,"뜡":6171,"뜨":6172,"뜩":6173,"뜬":6174,"뜯":6175,"뜰":6176,"뜷":6177,"뜸":6178,"뜹":6179,"뜻":6180,"뜽":6181,"띃":6182,"띄":6183,"띈":6184,"띌":6185,"띔":6186,"띕":6187,"띠":6188,"띡":6189,"띤":6190,"띨":6191,"띰":6192,"띱":6193,"띳":6194,"띵":6195,"라":6196,"락":6197,"란":6198,"랄":6199,"람":6200,"랍":6201,"랏":6202,"랐":6203,"랑":6204,"랖":6205,"랗":6206,"래":6207,"랙":6208,"랜":6209,"랠":6210,"램":6211,"랩":6212,"랫":6213,"랬":6214,"랭":6215,"랰":6216,"랲":6217,"랴":6218,"략":6219,"랸":6220,"럅":6221,"럇":6222,"량":6223,"러":6224,"럭":6225,"런":6226,"럳":6227,"럴":6228,"럼":6229,"럽":6230,"럿":6231,"렀":6232,"렁":6233,"렇":6234,"레":6235,"렉":6236,"렌":6237,"렏":6238,"렐":6239,"렘":6240,"렙":6241,"렛":6242,"렜":6243,"렝":6244,"렡":6245,"려":6246,"력":6247,"렦":6248,"련":6249,"렬":6250,"렴":6251,"렵":6252,"렷":6253,"렸":6254,"령":6255,"렼":6256,"례":6257,"롄":6258,"롇":6259,"롑":6260,"롓":6261,"로":6262,"록":6263,"론":6264,"롤":6265,"롬":6266,"롭":6267,"롯":6268,"롱":6269,"롸":6270,"롹":6271,"롼":6272,"뢌":6273,"뢍":6274,"뢰":6275,"뢴":6276,"뢸":6277,"룀":6278,"룅":6279,"료":6280,"룍":6281,"룐":6282,"룔":6283,"룝":6284,"룟":6285,"룡":6286,"루":6287,"룩":6288,"룬":6289,"룰":6290,"룸":6291,"룹":6292,"룻":6293,"룽":6294,"뤄":6295,"뤌":6296,"뤘":6297,"뤠":6298,"뤤":6299,"뤼":6300,"뤽":6301,"륀":6302,"륄":6303,"륌":6304,"륍":6305,"륏":6306,"륑":6307,"류":6308,"륙":6309,"륜":6310,"률":6311,"륨":6312,"륩":6313,"륭":6314,"르":6315,"륵":6316,"른":6317,"를":6318,"릂":6319,"릃":6320,"름":6321,"릅":6322,"릇":6323,"릉":6324,"릍":6325,"릎":6326,"릏":6327,"릐":6328,"릫":6329,"리":6330,"릭":6331,"릮":6332,"린":6333,"릲":6334,"릳":6335,"릴":6336,"림":6337,"립":6338,"릿":6339,"링":6340,"맂":6341,"맃":6342,"맆":6343,"마":6344,"막":6345,"만":6346,"맍":6347,"많":6348,"맏":6349,"말":6350,"맑":6351,"맒":6352,"맘":6353,"맙":6354,"맛":6355,"망":6356,"맞":6357,"맟":6358,"맡":6359,"맣":6360,"매":6361,"맥":6362,"맨":6363,"맬":6364,"맴":6365,"맵":6366,"맷":6367,"맸":6368,"맹":6369,"맺":6370,"먀":6371,"먁":6372,"먄":6373,"먈":6374,"먕":6375,"머":6376,"먹":6377,"먼":6378,"먿":6379,"멀":6380,"멈":6381,"멉":6382,"멋":6383,"멍":6384,"멎":6385,"멓":6386,"메":6387,"멕":6388,"멘":6389,"멜":6390,"멤":6391,"멥":6392,"멧":6393,"멨":6394,"멩":6395,"며":6396,"멱":6397,"면":6398,"멸":6399,"몃":6400,"몄":6401,"명":6402,"몆":6403,"몇":6404,"몌":6405,"몐":6406,"모":6407,"목":6408,"몫":6409,"몬":6410,"몯":6411,"몰":6412,"몸":6413,"몹":6414,"못":6415,"몽":6416,"뫄":6417,"뫈":6418,"뫌":6419,"뫏":6420,"뫔":6421,"뫼":6422,"묀":6423,"묄":6424,"묏":6425,"묘":6426,"묜":6427,"묠":6428,"묫":6429,"묭":6430,"무":6431,"묵":6432,"묶":6433,"문":6434,"묻":6435,"물":6436,"묽":6437,"묾":6438,"뭄":6439,"뭅":6440,"뭇":6441,"뭉":6442,"뭍":6443,"뭏":6444,"뭐":6445,"뭔":6446,"뭘":6447,"뭡":6448,"뭣":6449,"뭥":6450,"뭬":6451,"뭰":6452,"뮈":6453,"뮌":6454,"뮐":6455,"뮤":6456,"뮥":6457,"뮨":6458,"뮬":6459,"뮭":6460,"뮴":6461,"므":6462,"믄":6463,"믈":6464,"믐":6465,"믓":6466,"믜":6467,"미":6468,"믹":6469,"민":6470,"믾":6471,"믿":6472,"밀":6473,"밃":6474,"밈":6475,"밉":6476,"밋":6477,"밌":6478,"밍":6479,"밎":6480,"및":6481,"밐":6482,"밑":6483,"바":6484,"박":6485,"밖":6486,"반":6487,"받":6488,"발":6489,"밝":6490,"밞":6491,"밟":6492,"밠":6493,"밣":6494,"밤":6495,"밥":6496,"밧":6497,"방":6498,"밪":6499,"밫":6500,"밬":6501,"밭":6502,"배":6503,"백":6504,"밴":6505,"밷":6506,"밸":6507,"뱀":6508,"뱁":6509,"뱃":6510,"뱄":6511,"뱅":6512,"뱉":6513,"뱌":6514,"뱐":6515,"뱔":6516,"뱕":6517,"뱜":6518,"뱝":6519,"뱡":6520,"버":6521,"벅":6522,"번":6523,"벋":6524,"벌":6525,"범":6526,"법":6527,"벗":6528,"벙":6529,"벚":6530,"벛":6531,"베":6532,"벡":6533,"벤":6534,"벧":6535,"벨":6536,"벰":6537,"벱":6538,"벳":6539,"벴":6540,"벵":6541,"벼":6542,"벽":6543,"변":6544,"별":6545,"볍":6546,"볏":6547,"볐":6548,"병":6549,"볓":6550,"볕":6551,"볜":6552,"보":6553,"복":6554,"볶":6555,"본":6556,"볻":6557,"볼":6558,"볽":6559,"봄":6560,"봅":6561,"봇":6562,"봉":6563,"봐":6564,"봑":6565,"봣":6566,"봤":6567,"봬":6568,"뵀":6569,"뵈":6570,"뵌":6571,"뵐":6572,"뵘":6573,"뵙":6574,"뵤":6575,"뵨":6576,"뵷":6577,"뵹":6578,"부":6579,"북":6580,"분":6581,"붇":6582,"불":6583,"붉":6584,"붐":6585,"붑":6586,"붓":6587,"붕":6588,"붗":6589,"붙":6590,"붜":6591,"붸":6592,"붼":6593,"뷁":6594,"뷔":6595,"뷘":6596,"뷜":6597,"뷰":6598,"뷱":6599,"뷴":6600,"뷷":6601,"뷸":6602,"븀":6603,"븃":6604,"븅":6605,"브":6606,"븍":6607,"븐":6608,"븑":6609,"블":6610,"븟":6611,"븠":6612,"븡":6613,"븨":6614,"비":6615,"빅":6616,"빈":6617,"빋":6618,"빌":6619,"빍":6620,"빔":6621,"빕":6622,"빗":6623,"빙":6624,"빚":6625,"빛":6626,"빝":6627,"빟":6628,"빠":6629,"빡":6630,"빤":6631,"빨":6632,"빰":6633,"빱":6634,"빳":6635,"빴":6636,"빵":6637,"빻":6638,"빼":6639,"빽":6640,"뺀":6641,"뺄":6642,"뺌":6643,"뺍":6644,"뺏":6645,"뺐":6646,"뺑":6647,"뺨":6648,"뺴":6649,"뺼":6650,"뻄":6651,"뻐":6652,"뻑":6653,"뻔":6654,"뻗":6655,"뻘":6656,"뻣":6657,"뻤":6658,"뻥":6659,"뻨":6660,"뻬":6661,"뻿":6662,"뼁":6663,"뼈":6664,"뼉":6665,"뼘":6666,"뼛":6667,"뼜":6668,"뼝":6669,"뽀":6670,"뽁":6671,"뽄":6672,"뽈":6673,"뽐":6674,"뽑":6675,"뽓":6676,"뽕":6677,"뽜":6678,"뽝":6679,"뾔":6680,"뾰":6681,"뿅":6682,"뿌":6683,"뿍":6684,"뿐":6685,"뿔":6686,"뿜":6687,"뿟":6688,"뿡":6689,"쀄":6690,"쀠":6691,"쀼":6692,"쁄":6693,"쁘":6694,"쁜":6695,"쁠":6696,"쁨":6697,"쁩":6698,"쁭":6699,"삐":6700,"삑":6701,"삔":6702,"삘":6703,"삠":6704,"삣":6705,"삤":6706,"삥":6707,"사":6708,"삭":6709,"삯":6710,"산":6711,"삳":6712,"살":6713,"삵":6714,"삶":6715,"삷":6716,"삼":6717,"삽":6718,"삿":6719,"샀":6720,"상":6721,"샅":6722,"새":6723,"색":6724,"샌":6725,"샐":6726,"샘":6727,"샙":6728,"샛":6729,"샜":6730,"생":6731,"샤":6732,"샥":6733,"샨":6734,"샬":6735,"샴":6736,"샵":6737,"샷":6738,"샹":6739,"샾":6740,"섀":6741,"섁":6742,"섄":6743,"섈":6744,"섐":6745,"섕":6746,"서":6747,"석":6748,"섞":6749,"섟":6750,"선":6751,"섣":6752,"설":6753,"섥":6754,"섦":6755,"섬":6756,"섭":6757,"섮":6758,"섯":6759,"섰":6760,"성":6761,"섲":6762,"섴":6763,"섶":6764,"세":6765,"섹":6766,"센":6767,"셀":6768,"셈":6769,"셉":6770,"셋":6771,"셌":6772,"셍":6773,"셐":6774,"셔":6775,"셕":6776,"션":6777,"셜":6778,"셤":6779,"셥":6780,"셧":6781,"셨":6782,"셩":6783,"셰":6784,"셱":6785,"셴":6786,"셸":6787,"솀":6788,"솁":6789,"솅":6790,"소":6791,"속":6792,"솎":6793,"손":6794,"솓":6795,"솔":6796,"솜":6797,"솝":6798,"솟":6799,"송":6800,"솥":6801,"솦":6802,"솨":6803,"솩":6804,"솬":6805,"솰":6806,"솽":6807,"쇄":6808,"쇘":6809,"쇠":6810,"쇤":6811,"쇨":6812,"쇳":6813,"쇴":6814,"쇼":6815,"쇽":6816,"숀":6817,"숄":6818,"숌":6819,"숍":6820,"숏":6821,"숑":6822,"숖":6823,"수":6824,"숙":6825,"순":6826,"숟":6827,"술":6828,"숨":6829,"숩":6830,"숫":6831,"숭":6832,"숯":6833,"숱":6834,"숲":6835,"숴":6836,"쉄":6837,"쉈":6838,"쉐":6839,"쉑":6840,"쉔":6841,"쉘":6842,"쉠":6843,"쉥":6844,"쉬":6845,"쉭":6846,"쉰":6847,"쉴":6848,"쉼":6849,"쉽":6850,"쉿":6851,"슁":6852,"슈":6853,"슉":6854,"슌":6855,"슐":6856,"슘":6857,"슛":6858,"슝":6859,"스":6860,"슥":6861,"슨":6862,"슫":6863,"슬":6864,"슭":6865,"슴":6866,"습":6867,"슷":6868,"승":6869,"슽":6870,"싀":6871,"시":6872,"식":6873,"신":6874,"싣":6875,"실":6876,"싦":6877,"싨":6878,"싫":6879,"심":6880,"십":6881,"싯":6882,"싱":6883,"싶":6884,"싸":6885,"싹":6886,"싻":6887,"싼":6888,"싿":6889,"쌀":6890,"쌈":6891,"쌉":6892,"쌌":6893,"쌍":6894,"쌓":6895,"쌔":6896,"쌕":6897,"쌘":6898,"쌜":6899,"쌤":6900,"쌥":6901,"쌧":6902,"쌨":6903,"쌩":6904,"쌰":6905,"쌴":6906,"썀":6907,"썅":6908,"써":6909,"썩":6910,"썪":6911,"썬":6912,"썰":6913,"썲":6914,"썸":6915,"썹":6916,"썻":6917,"썼":6918,"썽":6919,"쎄":6920,"쎅":6921,"쎈":6922,"쎌":6923,"쎔":6924,"쎘":6925,"쎙":6926,"쏄":6927,"쏘":6928,"쏙":6929,"쏜":6930,"쏟":6931,"쏠":6932,"쏨":6933,"쏩":6934,"쏫":6935,"쏭":6936,"쏱":6937,"쏳":6938,"쏴":6939,"쏵":6940,"쏸":6941,"쏼":6942,"쐈":6943,"쐐":6944,"쐥":6945,"쐬":6946,"쐰":6947,"쐴":6948,"쑈":6949,"쑛":6950,"쑝":6951,"쑤":6952,"쑥":6953,"쑨":6954,"쑬":6955,"쑴":6956,"쑵":6957,"쑹":6958,"쒀":6959,"쒔":6960,"쒜":6961,"쒸":6962,"쓔":6963,"쓘":6964,"쓩":6965,"쓰":6966,"쓱":6967,"쓴":6968,"쓸":6969,"쓺":6970,"쓿":6971,"씀":6972,"씁":6973,"씌":6974,"씐":6975,"씔":6976,"씨":6977,"씩":6978,"씬":6979,"씰":6980,"씸":6981,"씹":6982,"씻":6983,"씼":6984,"씽":6985,"아":6986,"악":6987,"앆":6988,"안":6989,"앉":6990,"않":6991,"앋":6992,"알":6993,"앍":6994,"앎":6995,"앏":6996,"앓":6997,"암":6998,"압":6999,"앗":7000,"았":7001,"앙":7002,"앜":7003,"앝":7004,"앞":7005,"앟":7006,"애":7007,"액":7008,"앤":7009,"앨":7010,"앰":7011,"앱":7012,"앲":7013,"앳":7014,"앴":7015,"앵":7016,"야":7017,"약":7018,"얀":7019,"얄":7020,"얅":7021,"얆":7022,"얇":7023,"얉":7024,"얌":7025,"얍":7026,"얏":7027,"얐":7028,"양":7029,"얕":7030,"얗":7031,"얘":7032,"얜":7033,"얠":7034,"얩":7035,"어":7036,"억":7037,"얷":7038,"언":7039,"얹":7040,"얻":7041,"얼":7042,"얽":7043,"얾":7044,"엁":7045,"엄":7046,"업":7047,"없":7048,"엇":7049,"었":7050,"엉":7051,"엊":7052,"엌":7053,"엎":7054,"엏":7055,"에":7056,"엑":7057,"엔":7058,"엘":7059,"엙":7060,"엠":7061,"엡":7062,"엣":7063,"엤":7064,"엥":7065,"엨":7066,"여":7067,"역":7068,"엮":7069,"연":7070,"열":7071,"엶":7072,"엷":7073,"엸":7074,"염":7075,"엽":7076,"엾":7077,"엿":7078,"였":7079,"영":7080,"옄":7081,"옅":7082,"옆":7083,"옇":7084,"예":7085,"옌":7086,"옐":7087,"옘":7088,"옙":7089,"옛":7090,"옜":7091,"오":7092,"옥":7093,"온":7094,"올":7095,"옭":7096,"옮":7097,"옯":7098,"옲":7099,"옳":7100,"옴":7101,"옵":7102,"옷":7103,"옸":7104,"옹":7105,"옻":7106,"옽":7107,"옾":7108,"옿":7109,"와":7110,"왁":7111,"완":7112,"왈":7113,"왍":7114,"왐":7115,"왑":7116,"왓":7117,"왔":7118,"왕":7119,"왘":7120,"왛":7121,"왜":7122,"왝":7123,"왠":7124,"왤":7125,"왬":7126,"왱":7127,"외":7128,"왹":7129,"왼":7130,"욀":7131,"욈":7132,"욋":7133,"욌":7134,"욍":7135,"요":7136,"욕":7137,"욘":7138,"욜":7139,"욤":7140,"욥":7141,"욧":7142,"용":7143,"욬":7144,"욭":7145,"욯":7146,"우":7147,"욱":7148,"운":7149,"울":7150,"움":7151,"웁":7152,"웂":7153,"웃":7154,"웅":7155,"워":7156,"웍":7157,"원":7158,"월":7159,"웗":7160,"웜":7161,"웝":7162,"웟":7163,"웠":7164,"웡":7165,"웧":7166,"웨":7167,"웩":7168,"웬":7169,"웰":7170,"웱":7171,"웸":7172,"웹":7173,"웻":7174,"웽":7175,"윁":7176,"위":7177,"윅":7178,"윈":7179,"윋":7180,"윌":7181,"윔":7182,"윕":7183,"윗":7184,"윙":7185,"유":7186,"육":7187,"윤":7188,"율":7189,"윰":7190,"윱":7191,"윳":7192,"융":7193,"윷":7194,"으":7195,"윽":7196,"윾":7197,"은":7198,"읂":7199,"읃":7200,"을":7201,"읆":7202,"읊":7203,"음":7204,"읍":7205,"읎":7206,"읏":7207,"응":7208,"읒":7209,"읓":7210,"읔":7211,"읕":7212,"읖":7213,"읗":7214,"의":7215,"읙":7216,"읜":7217,"읟":7218,"읠":7219,"읭":7220,"이":7221,"익":7222,"읶":7223,"인":7224,"일":7225,"읽":7226,"읾":7227,"잃":7228,"임":7229,"입":7230,"잆":7231,"잇":7232,"있":7233,"잉":7234,"잊":7235,"잌":7236,"잍":7237,"잎":7238,"잏":7239,"자":7240,"작":7241,"잔":7242,"잖":7243,"잗":7244,"잘":7245,"잠":7246,"잡":7247,"잣":7248,"잤":7249,"장":7250,"잦":7251,"재":7252,"잭":7253,"잰":7254,"잴":7255,"잼":7256,"잽":7257,"잿":7258,"쟀":7259,"쟁":7260,"쟈":7261,"쟉":7262,"쟌":7263,"쟎":7264,"쟐":7265,"쟛":7266,"쟜":7267,"쟝":7268,"쟤":7269,"쟨":7270,"저":7271,"적":7272,"전":7273,"절":7274,"젊":7275,"젋":7276,"젏":7277,"점":7278,"접":7279,"젓":7280,"젔":7281,"정":7282,"젖":7283,"젛":7284,"제":7285,"젝":7286,"젠":7287,"젤":7288,"젬":7289,"젭":7290,"젯":7291,"젱":7292,"져":7293,"젹":7294,"젼":7295,"졈":7296,"졋":7297,"졌":7298,"졍":7299,"졓":7300,"졔":7301,"졘":7302,"조":7303,"족":7304,"존":7305,"졸":7306,"좀":7307,"좁":7308,"좃":7309,"종":7310,"좆":7311,"좇":7312,"좋":7313,"좌":7314,"좍":7315,"좐":7316,"좔":7317,"좡":7318,"좨":7319,"좼":7320,"좽":7321,"죄":7322,"죈":7323,"죌":7324,"죔":7325,"죗":7326,"죘":7327,"죙":7328,"죠":7329,"죡":7330,"죤":7331,"죵":7332,"죸":7333,"주":7334,"죽":7335,"준":7336,"줄":7337,"줆":7338,"줌":7339,"줍":7340,"줏":7341,"중":7342,"줖":7343,"줘":7344,"줠":7345,"줧":7346,"줪":7347,"줫":7348,"줬":7349,"줴":7350,"줵":7351,"쥊":7352,"쥐":7353,"쥑":7354,"쥔":7355,"쥘":7356,"쥠":7357,"쥡":7358,"쥣":7359,"쥬":7360,"쥭":7361,"쥰":7362,"쥴":7363,"쥼":7364,"쥿":7365,"즁":7366,"즇":7367,"즈":7368,"즉":7369,"즋":7370,"즌":7371,"즐":7372,"즘":7373,"즙":7374,"즛":7375,"증":7376,"즤":7377,"즹":7378,"지":7379,"직":7380,"짂":7381,"진":7382,"짇":7383,"질":7384,"짊":7385,"짐":7386,"집":7387,"짓":7388,"징":7389,"짖":7390,"짘":7391,"짙":7392,"짚":7393,"짜":7394,"짝":7395,"짠":7396,"짢":7397,"짤":7398,"짦":7399,"짧":7400,"짬":7401,"짭":7402,"짯":7403,"짰":7404,"짱":7405,"째":7406,"짹":7407,"짼":7408,"쨀":7409,"쨈":7410,"쨉":7411,"쨋":7412,"쨌":7413,"쨍":7414,"쨔":7415,"쨕":7416,"쨘":7417,"쨜":7418,"쨩":7419,"쨰":7420,"쩃":7421,"쩌":7422,"쩍":7423,"쩐":7424,"쩔":7425,"쩜":7426,"쩝":7427,"쩟":7428,"쩡":7429,"쩨":7430,"쩬":7431,"쪄":7432,"쪘":7433,"쪙":7434,"쪼":7435,"쪽":7436,"쪾":7437,"쫀":7438,"쫄":7439,"쫌":7440,"쫍":7441,"쫏":7442,"쫑":7443,"쫒":7444,"쫓":7445,"쫖":7446,"쫘":7447,"쫙":7448,"쫜":7449,"쫩":7450,"쫴":7451,"쬐":7452,"쬔":7453,"쬘":7454,"쬠":7455,"쬬":7456,"쬲":7457,"쬽":7458,"쭈":7459,"쭉":7460,"쭌":7461,"쭏":7462,"쭐":7463,"쭘":7464,"쭙":7465,"쭝":7466,"쭤":7467,"쭬":7468,"쭸":7469,"쭹":7470,"쮗":7471,"쮜":7472,"쮠":7473,"쮸":7474,"쯈":7475,"쯔":7476,"쯕":7477,"쯜":7478,"쯤":7479,"쯥":7480,"쯧":7481,"쯩":7482,"찌":7483,"찍":7484,"찎":7485,"찐":7486,"찔":7487,"찜":7488,"찝":7489,"찟":7490,"찡":7491,"찢":7492,"찧":7493,"차":7494,"착":7495,"찬":7496,"찭":7497,"찮":7498,"찰":7499,"참":7500,"찹":7501,"찻":7502,"찼":7503,"창":7504,"찾":7505,"찿":7506,"채":7507,"책":7508,"챈":7509,"챌":7510,"챔":7511,"챕":7512,"챗":7513,"챘":7514,"챙":7515,"챠":7516,"챤":7517,"챦":7518,"챨":7519,"챰":7520,"챱":7521,"챵":7522,"처":7523,"척":7524,"천":7525,"첝":7526,"철":7527,"첨":7528,"첩":7529,"첫":7530,"첬":7531,"청":7532,"체":7533,"첵":7534,"첸":7535,"첼":7536,"쳄":7537,"쳅":7538,"쳇":7539,"쳉":7540,"쳐":7541,"쳔":7542,"쳘":7543,"쳡":7544,"쳣":7545,"쳤":7546,"쳥":7547,"쳬":7548,"쳰":7549,"초":7550,"촉":7551,"촌":7552,"촐":7553,"촘":7554,"촙":7555,"촛":7556,"총":7557,"촟":7558,"촤":7559,"촥":7560,"촨":7561,"촬":7562,"촴":7563,"촵":7564,"촹":7565,"쵀":7566,"최":7567,"쵝":7568,"쵠":7569,"쵤":7570,"쵴":7571,"쵸":7572,"쵹":7573,"춈":7574,"춉":7575,"춍":7576,"추":7577,"축":7578,"춘":7579,"출":7580,"춝":7581,"춤":7582,"춥":7583,"춧":7584,"충":7585,"춪":7586,"춭":7587,"춰":7588,"춱":7589,"춴":7590,"춸":7591,"췄":7592,"췅":7593,"췌":7594,"췍":7595,"췐":7596,"취":7597,"췩":7598,"췬":7599,"췰":7600,"췻":7601,"췽":7602,"츃":7603,"츄":7604,"츅":7605,"츈":7606,"츌":7607,"츙":7608,"츠":7609,"측":7610,"츤":7611,"츨":7612,"츰":7613,"츱":7614,"츳":7615,"층":7616,"치":7617,"칙":7618,"친":7619,"칞":7620,"칠":7621,"칡":7622,"칢":7623,"침":7624,"칩":7625,"칫":7626,"칭":7627,"카":7628,"칵":7629,"칸":7630,"칼":7631,"캄":7632,"캅":7633,"캇":7634,"캈":7635,"캉":7636,"캌":7637,"캐":7638,"캑":7639,"캔":7640,"캘":7641,"캠":7642,"캡":7643,"캣":7644,"캤":7645,"캥":7646,"캩":7647,"캬":7648,"캭":7649,"커":7650,"컥":7651,"컨":7652,"컫":7653,"컬":7654,"컴":7655,"컵":7656,"컷":7657,"컸":7658,"컹":7659,"케":7660,"켁":7661,"켄":7662,"켈":7663,"켐":7664,"켑":7665,"켓":7666,"켕":7667,"켜":7668,"켠":7669,"켤":7670,"켬":7671,"켭":7672,"켯":7673,"켰":7674,"켱":7675,"켸":7676,"코":7677,"콕":7678,"콘":7679,"콜":7680,"콤":7681,"콥":7682,"콧":7683,"콩":7684,"콫":7685,"콰":7686,"콱":7687,"콴":7688,"콸":7689,"쾀":7690,"쾃":7691,"쾅":7692,"쾌":7693,"쾡":7694,"쾨":7695,"쾰":7696,"쾹":7697,"쿄":7698,"쿠":7699,"쿡":7700,"쿤":7701,"쿨":7702,"쿰":7703,"쿱":7704,"쿳":7705,"쿵":7706,"쿸":7707,"쿼":7708,"쿽":7709,"퀀":7710,"퀄":7711,"퀑":7712,"퀘":7713,"퀜":7714,"퀠":7715,"퀩":7716,"퀭":7717,"퀴":7718,"퀵":7719,"퀸":7720,"퀼":7721,"큄":7722,"큅":7723,"큇":7724,"큉":7725,"큐":7726,"큘":7727,"큠":7728,"큥":7729,"크":7730,"큭":7731,"큰":7732,"클":7733,"큼":7734,"큽":7735,"킁":7736,"키":7737,"킥":7738,"킨":7739,"킬":7740,"킴":7741,"킵":7742,"킷":7743,"킹":7744,"킽":7745,"타":7746,"탁":7747,"탄":7748,"탈":7749,"탉":7750,"탐":7751,"탑":7752,"탓":7753,"탔":7754,"탕":7755,"태":7756,"택":7757,"탠":7758,"탤":7759,"탬":7760,"탭":7761,"탯":7762,"탰":7763,"탱":7764,"탸":7765,"탹":7766,"턍":7767,"터":7768,"턱":7769,"턴":7770,"털":7771,"턿":7772,"텀":7773,"텁":7774,"텃":7775,"텄":7776,"텅":7777,"텈":7778,"텉":7779,"테":7780,"텍":7781,"텐":7782,"텔":7783,"템":7784,"텝":7785,"텟":7786,"텡":7787,"텨":7788,"텬":7789,"텼":7790,"톄":7791,"톈":7792,"토":7793,"톡":7794,"톤":7795,"톨":7796,"톰":7797,"톱":7798,"톳":7799,"통":7800,"톸":7801,"톺":7802,"톼":7803,"퇀":7804,"퇘":7805,"퇴":7806,"퇸":7807,"퇼":7808,"툇":7809,"툈":7810,"툐":7811,"툔":7812,"툠":7813,"투":7814,"툭":7815,"툰":7816,"툴":7817,"툼":7818,"툽":7819,"툿":7820,"퉁":7821,"퉈":7822,"퉌":7823,"퉜":7824,"퉤":7825,"튀":7826,"튁":7827,"튄":7828,"튈":7829,"튐":7830,"튑":7831,"튕":7832,"튜":7833,"튝":7834,"튠":7835,"튤":7836,"튬":7837,"튭":7838,"튱":7839,"트":7840,"특":7841,"튼":7842,"튽":7843,"튿":7844,"틀":7845,"틂":7846,"틈":7847,"틉":7848,"틋":7849,"틍":7850,"틑":7851,"틔":7852,"틘":7853,"틜":7854,"틤":7855,"티":7856,"틱":7857,"틴":7858,"틸":7859,"팀":7860,"팁":7861,"팃":7862,"팅":7863,"파":7864,"팍":7865,"팎":7866,"판":7867,"팔":7868,"팖":7869,"팜":7870,"팝":7871,"팟":7872,"팠":7873,"팡":7874,"팤":7875,"팥":7876,"패":7877,"팩":7878,"팬":7879,"팰":7880,"팸":7881,"팹":7882,"팻":7883,"팼":7884,"팽":7885,"퍄":7886,"퍅":7887,"퍙":7888,"퍼":7889,"퍽":7890,"펀":7891,"펄":7892,"펌":7893,"펍":7894,"펏":7895,"펐":7896,"펑":7897,"페":7898,"펙":7899,"펜":7900,"펠":7901,"펢":7902,"펨":7903,"펩":7904,"펫":7905,"펭":7906,"펴":7907,"편":7908,"펼":7909,"폄":7910,"폅":7911,"폇":7912,"폈":7913,"평":7914,"폏":7915,"폐":7916,"폔":7917,"포":7918,"폭":7919,"폰":7920,"폴":7921,"폼":7922,"폽":7923,"폿":7924,"퐁":7925,"퐈":7926,"퐉":7927,"퐝":7928,"푀":7929,"푄":7930,"푈":7931,"표":7932,"푠":7933,"푤":7934,"푯":7935,"푸":7936,"푹":7937,"푼":7938,"푿":7939,"풀":7940,"풂":7941,"품":7942,"풉":7943,"풋":7944,"풍":7945,"풔":7946,"풕":7947,"풱":7948,"퓌":7949,"퓐":7950,"퓔":7951,"퓨":7952,"퓰":7953,"퓸":7954,"퓽":7955,"프":7956,"픈":7957,"플":7958,"픔":7959,"픕":7960,"픙":7961,"픞":7962,"피":7963,"픽":7964,"핀":7965,"필":7966,"핌":7967,"핍":7968,"핏":7969,"핑":7970,"핗":7971,"하":7972,"학":7973,"핚":7974,"한":7975,"핟":7976,"할":7977,"핡":7978,"핤":7979,"핥":7980,"핧":7981,"함":7982,"합":7983,"핫":7984,"항":7985,"핰":7986,"핱":7987,"핳":7988,"해":7989,"핵":7990,"핶":7991,"핸":7992,"핼":7993,"햄":7994,"햅":7995,"햇":7996,"했":7997,"행":7998,"햋":7999,"햎":8000,"햐":8001,"햔":8002,"햠":8003,"햣":8004,"햤":8005,"향":8006,"햬":8007,"헀":8008,"허":8009,"헉":8010,"헌":8011,"헐":8012,"헕":8013,"험":8014,"헙":8015,"헛":8016,"헜":8017,"헝":8018,"헠":8019,"헡":8020,"헣":8021,"헤":8022,"헥":8023,"헨":8024,"헬":8025,"헴":8026,"헵":8027,"헷":8028,"헸":8029,"헹":8030,"헿":8031,"혀":8032,"혁":8033,"현":8034,"혈":8035,"혐":8036,"협":8037,"혓":8038,"혔":8039,"형":8040,"혜":8041,"혠":8042,"혤":8043,"혬":8044,"혲":8045,"호":8046,"혹":8047,"혼":8048,"홀":8049,"홈":8050,"홉":8051,"홋":8052,"홍":8053,"홑":8054,"화":8055,"확":8056,"환":8057,"홛":8058,"활":8059,"홝":8060,"홤":8061,"홥":8062,"홧":8063,"황":8064,"홰":8065,"홱":8066,"횃":8067,"횅":8068,"회":8069,"획":8070,"횐":8071,"횔":8072,"횟":8073,"횡":8074,"효":8075,"횩":8076,"횬":8077,"횰":8078,"횻":8079,"횽":8080,"후":8081,"훅":8082,"훈":8083,"훌":8084,"훍":8085,"훑":8086,"훓":8087,"훔":8088,"훕":8089,"훗":8090,"훙":8091,"훠":8092,"훤":8093,"훨":8094,"훵":8095,"훼":8096,"훽":8097,"휀":8098,"휄":8099,"휑":8100,"휘":8101,"휙":8102,"휜":8103,"휠":8104,"휨":8105,"휩":8106,"휫":8107,"휭":8108,"휴":8109,"휵":8110,"휸":8111,"휼":8112,"흄":8113,"흉":8114,"흐":8115,"흑":8116,"흔":8117,"흗":8118,"흘":8119,"흙":8120,"흝":8121,"흟":8122,"흠":8123,"흡":8124,"흣":8125,"흥":8126,"흩":8127,"흫":8128,"희":8129,"흭":8130,"흰":8131,"흴":8132,"흽":8133,"히":8134,"힉":8135,"힌":8136,"힐":8137,"힘":8138,"힙":8139,"힛":8140,"힜":8141,"힝":8142,"힠":8143,"힣":8144,"":8145,"":8146,"":8147,"":8148,"":8149,"":8150,"":8151,"":8152,"":8153,"":8154,"":8155,"":8156,"":8157,"":8158,"":8159,"":8160,"":8161,"":8162,"":8163,"":8164,"":8165,"":8166,"":8167,"":8168,"":8169,"":8170,"":8171,"":8172,"":8173,"":8174,"":8175,"":8176,"":8177,"":8178,"":8179,"更":8180,"車":8181,"滑":8182,"串":8183,"龜":8184,"龜":8185,"金":8186,"奈":8187,"懶":8188,"癩":8189,"羅":8190,"蘿":8191,"螺":8192,"裸":8193,"樂":8194,"洛":8195,"烙":8196,"落":8197,"駱":8198,"亂":8199,"卵":8200,"欄":8201,"爛":8202,"蘭":8203,"鸞":8204,"嵐":8205,"濫":8206,"藍":8207,"襤":8208,"拉":8209,"臘":8210,"朗":8211,"浪":8212,"狼":8213,"郎":8214,"來":8215,"冷":8216,"勞":8217,"櫓":8218,"爐":8219,"盧":8220,"老":8221,"蘆":8222,"路":8223,"露":8224,"魯":8225,"鷺":8226,"祿":8227,"綠":8228,"錄":8229,"鹿":8230,"論":8231,"壟":8232,"弄":8233,"籠":8234,"聾":8235,"磊":8236,"雷":8237,"樓":8238,"淚":8239,"漏":8240,"累":8241,"陋":8242,"勒":8243,"凜":8244,"凌":8245,"綾":8246,"菱":8247,"陵":8248,"拏":8249,"樂":8250,"諾":8251,"寧":8252,"怒":8253,"率":8254,"異":8255,"北":8256,"便":8257,"復":8258,"不":8259,"泌":8260,"數":8261,"索":8262,"參":8263,"塞":8264,"省":8265,"葉":8266,"說":8267,"殺":8268,"辰":8269,"沈":8270,"拾":8271,"若":8272,"略":8273,"亮":8274,"兩":8275,"凉":8276,"梁":8277,"糧":8278,"良":8279,"量":8280,"呂":8281,"女":8282,"廬":8283,"旅":8284,"濾":8285,"閭":8286,"驪":8287,"麗":8288,"黎":8289,"力":8290,"曆":8291,"歷":8292,"年":8293,"憐":8294,"戀":8295,"煉":8296,"璉":8297,"練":8298,"聯":8299,"蓮":8300,"連":8301,"鍊":8302,"列":8303,"劣":8304,"咽":8305,"烈":8306,"裂":8307,"說":8308,"廉":8309,"念":8310,"殮":8311,"獵":8312,"令":8313,"囹":8314,"寧":8315,"嶺":8316,"瑩":8317,"羚":8318,"鈴":8319,"零":8320,"靈":8321,"領":8322,"例":8323,"禮":8324,"醴":8325,"隸":8326,"惡":8327,"尿":8328,"料":8329,"樂":8330,"燎":8331,"療":8332,"遼":8333,"龍":8334,"劉":8335,"柳":8336,"流":8337,"溜":8338,"琉":8339,"留":8340,"硫":8341,"紐":8342,"類":8343,"六":8344,"陸":8345,"倫":8346,"崙":8347,"輪":8348,"律":8349,"栗":8350,"率":8351,"隆":8352,"利":8353,"履":8354,"易":8355,"李":8356,"梨":8357,"泥":8358,"理":8359,"痢":8360,"裏":8361,"裡":8362,"里":8363,"離":8364,"匿":8365,"溺":8366,"燐":8367,"隣":8368,"麟":8369,"林":8370,"淋":8371,"臨":8372,"立":8373,"笠":8374,"狀":8375,"炙":8376,"識":8377,"茶":8378,"刺":8379,"切":8380,"拓":8381,"宅":8382,"洞":8383,"暴":8384,"行":8385,"降":8386,"見":8387,"﨑":8388,"אּ":8389,"︎":8390,"️":8391,"︶":8392,"︿":8393,"ﻌ":8394,"！":8395,"＂":8396,"＃":8397,"＄":8398,"％":8399,"＆":8400,"＇":8401,"（":8402,"）":8403,"＊":8404,"＋":8405,"，":8406,"－":8407,"．":8408,"／":8409,"０":8410,"１":8411,"２":8412,"３":8413,"４":8414,"５":8415,"６":8416,"７":8417,"８":8418,"９":8419,"：":8420,"；":8421,"＜":8422,"＝":8423,"＞":8424,"？":8425,"＠":8426,"Ａ":8427,"Ｂ":8428,"Ｃ":8429,"Ｄ":8430,"Ｅ":8431,"Ｆ":8432,"Ｇ":8433,"Ｉ":8434,"Ｋ":8435,"Ｌ":8436,"Ｍ":8437,"Ｎ":8438,"Ｏ":8439,"Ｐ":8440,"Ｑ":8441,"Ｒ":8442,"Ｓ":8443,"Ｔ":8444,"Ｕ":8445,"Ｖ":8446,"Ｘ":8447,"Ｙ":8448,"［":8449,"＼":8450,"］":8451,"＾":8452,"＿":8453,"｀":8454,"ｃ":8455,"ｄ":8456,"ｅ":8457,"ｇ":8458,"ｈ":8459,"ｉ":8460,"ｌ":8461,"ｍ":8462,"ｎ":8463,"ｐ":8464,"ｓ":8465,"ｔ":8466,"ｕ":8467,"ｘ":8468,"ｙ":8469,"｜":8470,"｝":8471,"～":8472,"｡":8473,"｢":8474,"｣":8475,"･":8476,"ﾉ":8477,"ﾟ":8478,"￢":8479,"￣":8480,"￥":8481,"￦":8482,"￭":8483,"�":8484,"𝕄":8485,"𝕖":8486,"𝕟":8487,"𝕦":8488,"𝙰":8489,"𝙹":8490,"𝙽":8491,"𝙾":8492,"🇦":8493,"🇧":8494,"🇨":8495,"🇩":8496,"🇪":8497,"🇫":8498,"🇬":8499,"🇭":8500,"🇮":8501,"🇯":8502,"🇰":8503,"🇱":8504,"🇲":8505,"🇳":8506,"🇵":8507,"🇷":8508,"🇸":8509,"🇹":8510,"🇺":8511,"🇿":8512,"🌀":8513,"🌃":8514,"🌄":8515,"🌅":8516,"🌈":8517,"🌊":8518,"🌌":8519,"🌍":8520,"🌙":8521,"🌚":8522,"🌛":8523,"🌜":8524,"🌝":8525,"🌞":8526,"🌟":8527,"🌠":8528,"🌡":8529,"🌤":8530,"🌥":8531,"🌧":8532,"🌨":8533,"🌩":8534,"🌪":8535,"🌫":8536,"🌬":8537,"🌭":8538,"🌮":8539,"🌯":8540,"🌰":8541,"🌱":8542,"🌲":8543,"🌳":8544,"🌴":8545,"🌵":8546,"🌶":8547,"🌷":8548,"🌸":8549,"🌹":8550,"🌺":8551,"🌻":8552,"🌼":8553,"🌽":8554,"🌾":8555,"🌿":8556,"🍀":8557,"🍁":8558,"🍂":8559,"🍃":8560,"🍄":8561,"🍅":8562,"🍆":8563,"🍇":8564,"🍈":8565,"🍉":8566,"🍊":8567,"🍋":8568,"🍌":8569,"🍍":8570,"🍎":8571,"🍏":8572,"🍐":8573,"🍑":8574,"🍒":8575,"🍓":8576,"🍔":8577,"🍕":8578,"🍖":8579,"🍗":8580,"🍘":8581,"🍙":8582,"🍚":8583,"🍛":8584,"🍜":8585,"🍝":8586,"🍞":8587,"🍟":8588,"🍠":8589,"🍡":8590,"🍢":8591,"🍣":8592,"🍤":8593,"🍦":8594,"🍧":8595,"🍨":8596,"🍩":8597,"🍪":8598,"🍫":8599,"🍬":8600,"🍭":8601,"🍮":8602,"🍯":8603,"🍰":8604,"🍱":8605,"🍲":8606,"🍳":8607,"🍴":8608,"🍵":8609,"🍶":8610,"🍷":8611,"🍸":8612,"🍹":8613,"🍺":8614,"🍻":8615,"🍼":8616,"🍽":8617,"🍾":8618,"🍿":8619,"🎀":8620,"🎁":8621,"🎂":8622,"🎃":8623,"🎄":8624,"🎅":8625,"🎆":8626,"🎇":8627,"🎈":8628,"🎉":8629,"🎊":8630,"🎎":8631,"🎒":8632,"🎓":8633,"🎗":8634,"🎙":8635,"🎛":8636,"🎞":8637,"🎠":8638,"🎡":8639,"🎤":8640,"🎥":8641,"🎧":8642,"🎨":8643,"🎪":8644,"🎬":8645,"🎭":8646,"🎯":8647,"🎵":8648,"🎶":8649,"🎸":8650,"🎻":8651,"🎼":8652,"🏂":8653,"🏃":8654,"🏄":8655,"🏊":8656,"🏋":8657,"🏖":8658,"🏙":8659,"🏝":8660,"🏠":8661,"🏡":8662,"🏥":8663,"🏭":8664,"🏯":8665,"🏰":8666,"🏵":8667,"🏷":8668,"🏻":8669,"🏼":8670,"🏽":8671,"🏾":8672,"🏿":8673,"🐂":8674,"🐈":8675,"🐍":8676,"🐎":8677,"🐏":8678,"🐑":8679,"🐒":8680,"🐔":8681,"🐕":8682,"🐖":8683,"🐙":8684,"🐚":8685,"🐛":8686,"🐜":8687,"🐝":8688,"🐟":8689,"🐠":8690,"🐡":8691,"🐢":8692,"🐣":8693,"🐤":8694,"🐥":8695,"🐧":8696,"🐩":8697,"🐪":8698,"🐬":8699,"🐭":8700,"🐮":8701,"🐯":8702,"🐰":8703,"🐱":8704,"🐳":8705,"🐵":8706,"🐶":8707,"🐷":8708,"🐸":8709,"🐹":8710,"🐺":8711,"🐻":8712,"🐼":8713,"🐽":8714,"🐾":8715,"🐿":8716,"👀":8717,"👂":8718,"👃":8719,"👄":8720,"👆":8721,"👇":8722,"👈":8723,"👉":8724,"👊":8725,"👋":8726,"👌":8727,"👍":8728,"👏":8729,"👐":8730,"👑":8731,"👒":8732,"👓":8733,"👖":8734,"👗":8735,"👘":8736,"👙":8737,"👜":8738,"👟":8739,"👠":8740,"👣":8741,"👦":8742,"👧":8743,"👨":8744,"👩":8745,"👪":8746,"👫":8747,"👭":8748,"👯":8749,"👰":8750,"👱":8751,"👵":8752,"👶":8753,"👷":8754,"👻":8755,"👼":8756,"👿":8757,"💀":8758,"💁":8759,"💃":8760,"💄":8761,"💅":8762,"💆":8763,"💇":8764,"💊":8765,"💋":8766,"💌":8767,"💍":8768,"💎":8769,"💏":8770,"💐":8771,"💑":8772,"💓":8773,"💔":8774,"💕":8775,"💖":8776,"💗":8777,"💘":8778,"💙":8779,"💚":8780,"💛":8781,"💜":8782,"💝":8783,"💞":8784,"💟":8785,"💡":8786,"💣":8787,"💤":8788,"💥":8789,"💦":8790,"💧":8791,"💨":8792,"💩":8793,"💪":8794,"💫":8795,"💬":8796,"💭":8797,"💮":8798,"💯":8799,"💰":8800,"💱":8801,"💳":8802,"💴":8803,"💵":8804,"💶":8805,"💷":8806,"💸":8807,"💺":8808,"📌":8809,"📍":8810,"📓":8811,"📔":8812,"📕":8813,"📖":8814,"📗":8815,"📙":8816,"📚":8817,"📝":8818,"📮":8819,"📲":8820,"📷":8821,"📸":8822,"📺":8823,"📻":8824,"📼":8825,"📽":8826,"🔅":8827,"🔉":8828,"🔊":8829,"🔎":8830,"🔒":8831,"🔓":8832,"🔜":8833,"🔞":8834,"🔥":8835,"🔦":8836,"🔨":8837,"🔫":8838,"🔮":8839,"🔶":8840,"🕊":8841,"🕌":8842,"🕰":8843,"🕴":8844,"🕵":8845,"🕶":8846,"🕺":8847,"🖊":8848,"🖍":8849,"🖒":8850,"🖤":8851,"🖥":8852,"🖼":8853,"🗣":8854,"😀":8855,"😁":8856,"😂":8857,"😃":8858,"😄":8859,"😅":8860,"😆":8861,"😇":8862,"😈":8863,"😉":8864,"😊":8865,"😋":8866,"😌":8867,"😍":8868,"😎":8869,"😏":8870,"😐":8871,"😑":8872,"😒":8873,"😓":8874,"😔":8875,"😕":8876,"😖":8877,"😗":8878,"😘":8879,"😙":8880,"😚":8881,"😛":8882,"😜":8883,"😝":8884,"😞":8885,"😟":8886,"😠":8887,"😡":8888,"😢":8889,"😣":8890,"😤":8891,"😥":8892,"😦":8893,"😧":8894,"😨":8895,"😩":8896,"😪":8897,"😫":8898,"😬":8899,"😭":8900,"😮":8901,"😯":8902,"😰":8903,"😱":8904,"😲":8905,"😳":8906,"😴":8907,"😵":8908,"😶":8909,"😷":8910,"😸":8911,"😹":8912,"😻":8913,"😼":8914,"😽":8915,"😾":8916,"😿":8917,"🙀":8918,"🙁":8919,"🙂":8920,"🙃":8921,"🙄":8922,"🙅":8923,"🙆":8924,"🙇":8925,"🙈":8926,"🙉":8927,"🙊":8928,"🙋":8929,"🙌":8930,"🙍":8931,"🙎":8932,"🙏":8933,"🚀":8934,"🚂":8935,"🚄":8936,"🚆":8937,"🚌":8938,"🚗":8939,"🚘":8940,"🚙":8941,"🚫":8942,"🚲":8943,"🚴":8944,"🚶":8945,"🚷":8946,"🛀":8947,"🛍":8948,"🛠":8949,"🛣":8950,"🛤":8951,"🛩":8952,"🛫":8953,"🛵":8954,"🤑":8955,"🤒":8956,"🤓":8957,"🤔":8958,"🤕":8959,"🤖":8960,"🤗":8961,"🤘":8962,"🤙":8963,"🤚":8964,"🤝":8965,"🤞":8966,"🤟":8967,"🤠":8968,"🤢":8969,"🤣":8970,"🤤":8971,"🤦":8972,"🤧":8973,"🤨":8974,"🤩":8975,"🤪":8976,"🤫":8977,"🤬":8978,"🤭":8979,"🤮":8980,"🤯":8981,"🤲":8982,"🤳":8983,"🤴":8984,"🤵":8985,"🤷":8986,"🤸":8987,"🤹":8988,"🥀":8989,"🥁":8990,"🥂":8991,"🥃":8992,"🥄":8993,"🥊":8994,"🥐":8995,"🥑":8996,"🥒":8997,"🥓":8998,"🥔":8999,"🥕":9000,"🥖":9001,"🥗":9002,"🥘":9003,"🥙":9004,"🥚":9005,"🥜":9006,"🥝":9007,"🥞":9008,"🥢":9009,"🥣":9010,"🥤":9011,"🥥":9012,"🥦":9013,"🥨":9014,"🥩":9015,"🥪":9016,"🥬":9017,"🥭":9018,"🥰":9019,"🥳":9020,"🥴":9021,"🥵":9022,"🥶":9023,"🥺":9024,"🦀":9025,"🦁":9026,"🦄":9027,"🦆":9028,"🦉":9029,"🦋":9030,"🦌":9031,"🦍":9032,"🦎":9033,"🦐":9034,"🦵":9035,"🧀":9036,"🧐":9037,"🧒":9038,"🧖":9039,"🧗":9040,"🧘":9041,"🧚":9042,"🧝":9043,"🧡":9044,"🧤":9045,"🧸":9046,"󰀅":9047,"󰋯":9048,"󰋻":9049,"󰔲":9050,"󰕗":9051,"󰕘":9052,"󰕰":9053,"󰗞":9054,"󰚋":9055,"󰚜":9056,"󰚞":9057,"󰡐":9058,"󰡑":9059,"󰡒":9060,"󰡓":9061,"󰡔":9062,"󰡕":9063,"으로":9064,"했다":9065,"에서":9066,"있다":9067,"하는":9068,"이다":9069,"하고":9070,"00":9071,"한다":9072,"20":9073,"있는":9074,"이라":9075,"지난":9076,"지만":9077,"까지":9078,"었다":9079,"들이":9080,"면서":9081,"부터":9082,"한국":9083,"10":9084,"대한":9085,"에게":9086,"지역":9087,"사업":9088,"말했다":9089,"것으로":9090,"된다":9091,"적인":9092,"위해":9093,"에는":9094,"됐다":9095,"기업":9096,"적으로":9097,"하기":9098,"201":9099,"하다":9100,"들의":9101,"대표":9102,"시장":9103,"하게":9104,"이라고":9105,"정부":9106,"혔다":9107,"통해":9108,"경기":9109,"들은":9110,"밝혔다":9111,"200":9112,"았다":9113,"지원":9114,"이어":9115,"교육":9116,"위원":9117,"서울":9118,"장은":9119,"다는":9120,"자는":9121,"이번":9122,"관계":9123,"19":9124,"대해":9125,"때문":9126,"의원":9127,"들어":9128,"함께":9129,"보다":9130,"하지":9131,"아니":9132,"미국":9133,"우리":9134,"경제":9135,"사회":9136,"되는":9137,"지난해":9138,"시간":9139,"문제":9140,"통령":9141,"이상":9142,"대통령":9143,"세계":9144,"가능":9145,"문화":9146,"등을":9147,"에도":9148,"사를":9149,"억원":9150,"30":9151,"위한":9152,"계획":9153,"프로":9154,"중국":9155,"도록":9156,"였다":9157,"사람":9158,"에서는":9159,"졌다":9160,"11":9161,"관련":9162,"학교":9163,"연구":9164,"올해":9165,"겠다":9166,"개발":9167,"기를":9168,"해야":9169,"이날":9170,"12":9171,"장을":9172,"경우":9173,"같은":9174,"것이":9175,"000":9176,"하며":9177,"국내":9178,"진행":9179,"것이다":9180,"따라":9181,"산업":9182,"학생":9183,"하지만":9184,"투자":9185,"대로":9186,"리는":9187,"만원":9188,"최근":9189,"하면":9190,"후보":9191,"라고":9192,"것은":9193,"으며":9194,"15":9195,"니다":9196,"기술":9197,"들을":9198,"이후":9199,"),":9200,"일본":9201,"아이":9202,"운영":9203,"대상":9204,"시작":9205,"리를":9206,"예정":9207,"가장":9208,"국민":9209,"라는":9210,"조사":9211,"금융":9212,"이나":9213,"추진":9214,"없다":9215,"필요":9216,"그는":9217,"현재":9218,"지는":9219,"전문":9220,"도시":9221,"은행":9222,"결과":9223,"활동":9224,"동안":9225,"비스":9226,"특히":9227,"력을":9228,"하면서":9229,"이는":9230,"환경":9231,"다양":9232,"성을":9233,"민주":9234,"사는":9235,"되고":9236,"상황":9237,"지를":9238,"선수":9239,"다른":9240,"회의":9241,"스트":9242,"평가":9243,"이에":9244,"관계자는":9245,"업체":9246,"50":9247,"모두":9248,"그러":9249,"삼성":9250,"사용":9251,"관리":9252,"국가":9253,"경찰":9254,"센터":9255,"정책":9256,"도로":9257,"이라는":9258,"기록":9259,"부산":9260,"참여":9261,"이를":9262,"서비스":9263,"생각":9264,"자신":9265,"이용":9266,"대구":9267,"18":9268,"오는":9269,"제품":9270,"규모":9271,"장이":9272,"시민":9273,"르면":9274,"들에게":9275,"없는":9276,"때문에":9277,"보고":9278,"많은":9279,"있어":9280,"대회":9281,"정치":9282,"설명":9283,"다양한":9284,"사실":9285,"감독":9286,"자가":9287,"안전":9288,"서는":9289,"정보":9290,"리고":9291,"기관":9292,"정을":9293,"시설":9294,"16":9295,"주민":9296,"명이":9297,"성이":9298,"국제":9299,"13":9300,"자리":9301,"25":9302,"스타":9303,"14":9304,"최고":9305,"시아":9306,"북한":9307,"기에":9308,"이고":9309,"위원회":9310,"가는":9311,"는다":9312,"대학":9313,"왔다":9314,"전국":9315,"따르면":9316,"씨는":9317,"지고":9318,"발전":9319,"사가":9320,"100":9321,"가운":9322,"현대":9323,"화를":9324,"선거":9325,"판매":9326,"처럼":9327,"발표":9328,"방송":9329,"기준":9330,"점을":9331,"랜드":9332,"레이":9333,"단체":9334,"것을":9335,"1년":9336,"상을":9337,"제공":9338,"하나":9339,"마련":9340,"가운데":9341,"2년":9342,"국회":9343,"17":9344,"건설":9345,"지방":9346,"그램":9347,"없이":9348,"기대":9349,"생활":9350,"나라":9351,"교수":9352,"등이":9353,"인천":9354,"기가":9355,"관광":9356,"로운":9357,"성장":9358,"가격":9359,"이었다":9360,"에서도":9361,"등의":9362,"부분":9363,"1일":9364,"기간":9365,"3년":9366,"렸다":9367,"는데":9368,"경쟁":9369,"했던":9370,"다시":9371,"이라며":9372,"보인":9373,"영화":9374,"아니라":9375,"주는":9376,"그룹":9377,"거나":9378,"만큼":9379,"원을":9380,"마트":9381,"났다":9382,"5년":9383,"그러나":9384,"24":9385,"발생":9386,"있도록":9387,"공개":9388,"나타":9389,"공동":9390,"프로그램":9391,"내용":9392,"고객":9393,"생산":9394,"하겠다":9395,"당시":9396,"회사":9397,"전망":9398,"한편":9399,"예정이다":9400,"알려":9401,"사이":9402,"피해":9403,"확인":9404,"결정":9405,"과정":9406,"증가":9407,"명을":9408,"명의":9409,"한다는":9410,"40":9411,"달러":9412,"지금":9413,"자의":9414,"수도":9415,"열린":9416,"기도":9417,"오후":9418,"시는":9419,"자동":9420,"여성":9421,"주택":9422,"들과":9423,"직원":9424,"이유":9425,"분석":9426,"처음":9427,"지적":9428,"상품":9429,"사고":9430,"경영":9431,"있다는":9432,"광주":9433,"받아":9434,"활용":9435,"일부":9436,"수준":9437,"안을":9438,"포함":9439,"이런":9440,"소비":9441,"직접":9442,"확대":9443,"모습":9444,"개선":9445,"정도":9446,"운동":9447,"지도":9448,"관심":9449,"분야":9450,"%)":9451,"가족":9452,"때문이다":9453,"준비":9454,"주의":9455,"인터":9456,"공사":9457,"요구":9458,"회장":9459,"했고":9460,"시즌":9461,"했다고":9462,"중심":9463,"최대":9464,"검찰":9465,"예산":9466,"어려":9467,"가지":9468,"자를":9469,"사건":9470,"이미":9471,"구성":9472,"식을":9473,"기로":9474,"강화":9475,"보인다":9476,"4년":9477,"내년":9478,"22":9479,"해외":9480,"만들":9481,"전체":9482,"행사":9483,"성과":9484,"부는":9485,"시스":9486,"강조":9487,"23":9488,"으면":9489,"두고":9490,"있을":9491,"위를":9492,"파트":9493,"선정":9494,"방문":9495,"성공":9496,"27":9497,"전자":9498,"노동":9499,"리가":9500,"거래":9501,"기는":9502,"특별":9503,"않고":9504,"26":9505,"있었다":9506,"치를":9507,"모든":9508,"주장":9509,"받고":9510,"장관":9511,"새로운":9512,"효과":9513,"28":9514,"복지":9515,"만에":9516,"라인":9517,"중요":9518,"병원":9519,"의회":9520,"금을":9521,"예상":9522,"7년":9523,"대비":9524,"자체":9525,"제로":9526,"추가":9527,"앞으로":9528,"받은":9529,"습니다":9530,"사랑":9531,"공연":9532,"않은":9533,"많이":9534,"정상":9535,"8년":9536,"기존":9537,"민주당":9538,"개월":9539,"라이":9540,"도를":9541,"건강":9542,"보험":9543,"미래":9544,"중앙":9545,"비롯":9546,"다음":9547,"글로":9548,"계획이다":9549,"현장":9550,"나는":9551,"개최":9552,"기자":9553,"높은":9554,"또한":9555,"60":9556,"협력":9557,"마음":9558,"회를":9559,"개인":9560,"찾아":9561,"교통":9562,"좋은":9563,"실시":9564,"일반":9565,"주요":9566,"조성":9567,"지속":9568,"상태":9569,"평균":9570,"계약":9571,"적극":9572,"지난달":9573,"원이":9574,"했지만":9575,"자동차":9576,"냈다":9577,"않았다":9578,"원은":9579,"물론":9580,"리아":9581,"과학":9582,"외국":9583,"자인":9584,"상승":9585,"보여":9586,"6년":9587,"대를":9588,"이스":9589,"설명했다":9590,"구조":9591,"대책":9592,"지지":9593,"시스템":9594,"이지":9595,"수출":9596,"설치":9597,"책임":9598,"혐의":9599,"역시":9600,"만들어":9601,"29":9602,"행정":9603,"글로벌":9604,"수사":9605,"이야":9606,"자유":9607,"업무":9608,"10년":9609,"전략":9610,"력이":9611,"마을":9612,"등에":9613,"으나":9614,"롯데":9615,"떨어":9616,"확보":9617,"대전":9618,"영향":9619,"카드":9620,"업계":9621,"작품":9622,"아파트":9623,"9년":9624,"선을":9625,"되지":9626,"대상으로":9627,"중소":9628,"받았다":9629,"수는":9630,"다고":9631,"이뤄":9632,"참석":9633,"도가":9634,"시에":9635,"스마트":9636,"드러":9637,"LG":9638,"더욱":9639,"수가":9640,"가구":9641,"적용":9642,"대표는":9643,"브랜드":9644,"겠다는":9645,"수를":9646,"한다고":9647,"사진":9648,"통합":9649,"리그":9650,"어린":9651,"시키":9652,"늘어":9653,"원의":9654,"조선":9655,"일까지":9656,"신청":9657,"제를":9658,"진다":9659,"매출":9660,"SK":9661,"돌아":9662,"전에":9663,"부담":9664,"역할":9665,"거리":9666,"각각":9667,"70":9668,"해당":9669,"사의":9670,"우려":9671,"게임":9672,"의원은":9673,"인이":9674,"TV":9675,"그런":9676,"누리":9677,"었던":9678,"기능":9679,"공급":9680,"단지":9681,"예술":9682,"영업":9683,"하기로":9684,"의견":9685,"일부터":9686,"전했다":9687,"의료":9688,"의미":9689,"등으로":9690,"보면":9691,"부가":9692,"바로":9693,"문을":9694,"체험":9695,"해서":9696,"오전":9697,"료를":9698,"부를":9699,"감을":9700,"배우":9701,"계속":9702,"인사":9703,"집중":9704,"유지":9705,"시행":9706,"공간":9707,"전문가":9708,"제작":9709,"1만":9710,"아시아":9711,"80":9712,"밖에":9713,"소득":9714,"물을":9715,"앞서":9716,"종합":9717,"스포":9718,"되면":9719,"않는":9720,"치는":9721,"하려":9722,"세를":9723,"우승":9724,"통신":9725,"드는":9726,"제주":9727,"자로":9728,"하여":9729,"사무":9730,"차례":9731,"자신의":9732,"전을":9733,"대형":9734,"소년":9735,"번째":9736,"해결":9737,"6월":9738,"여러":9739,"라도":9740,"차량":9741,"나온":9742,"목표":9743,"우수":9744,"장애":9745,"것도":9746,"자연":9747,"크게":9748,"차지":9749,"혁신":9750,"경북":9751,"기획":9752,"방식":9753,"수익":9754,"대출":9755,"항공":9756,"도입":9757,"트를":9758,"권을":9759,"전시":9760,"참가":9761,"너지":9762,"대가":9763,"모델":9764,"리스":9765,"경기도":9766,"199":9767,"3월":9768,"출시":9769,"음악":9770,"르는":9771,"정부가":9772,"분양":9773,"경남":9774,"이며":9775,"청와":9776,"라며":9777,"움을":9778,"있고":9779,"따른":9780,"증권":9781,"보도":9782,"아닌":9783,"유럽":9784,"부모":9785,"데이":9786,"사업을":9787,"울산":9788,"프리":9789,"조직":9790,"4월":9791,"보호":9792,"위에":9793,"합의":9794,"사장":9795,"바이":9796,"5월":9797,"강조했다":9798,"500":9799,"위기":9800,"처리":9801,"노력":9802,"마다":9803,"보는":9804,"언론":9805,"소속":9806,"작업":9807,"중인":9808,"방법":9809,"시청":9810,"비용":9811,"과의":9812,".”":9813,"공공":9814,"지구":9815,"논의":9816,"BS":9817,"변화":9818,"스를":9819,"출신":9820,"이름":9821,"9월":9822,"하루":9823,"대에":9824,"고려":9825,"선택":9826,"있지만":9827,"검토":9828,"체육":9829,"아직":9830,"우선":9831,"있다고":9832,"장에서":9833,"여행":9834,"역사":9835,"인의":9836,"제도":9837,"일을":9838,"현지":9839,"서를":9840,"올림":9841,"인정":9842,"이익":9843,"%,":9844,"7월":9845,"구축":9846,"일이":9847,"다가":9848,"들도":9849,"조정":9850,"논란":9851,"어떤":9852,"인은":9853,"이와":9854,"활성":9855,"에선":9856,"렇게":9857,"대응":9858,"인을":9859,"그동안":9860,"수요":9861,"스는":9862,"지가":9863,"단계":9864,"판단":9865,"공식":9866,"인터넷":9867,"10월":9868,"진출":9869,"부문":9870,"시가":9871,"핵심":9872,"유치":9873,"적이":9874,"방침":9875,"케이":9876,"기념":9877,"제기":9878,"올림픽":9879,"받을":9880,"본부":9881,"대부분":9882,"에너지":9883,"선발":9884,"축구":9885,"최초":9886,"비판":9887,"이하":9888,"넘어":9889,"공무":9890,"원에":9891,"아니다":9892,"위원장":9893,"주변":9894,"8월":9895,"나서":9896,"감소":9897,"활동을":9898,"노조":9899,"되어":9900,"씨가":9901,"안정":9902,"자들이":9903,"반기":9904,"쳤다":9905,"각종":9906,"경험":9907,"알려졌다":9908,"12월":9909,"반면":9910,"안에":9911,"있으며":9912,"조합":9913,"감사":9914,"중소기업":9915,"세대":9916,"훈련":9917,"받는":9918,"공항":9919,"고용":9920,"출연":9921,"도는":9922,"희망":9923,"그리고":9924,"가능성이":9925,"자금":9926,"나타났다":9927,"무리":9928,"이제":9929,"이전":9930,"드라":9931,"부동":9932,"수원":9933,"별로":9934,"부족":9935,"이동":9936,"주고":9937,"같이":9938,"연합":9939,"청와대":9940,"홍보":9941,"공정":9942,"본격":9943,"해도":9944,"치료":9945,"기본":9946,"제시":9947,"했다는":9948,"지급":9949,")'":9950,"상이":9951,"섰다":9952,"건축":9953,"1월":9954,"제가":9955,"측은":9956,"개정":9957,"나가":9958,"갖고":9959,"디자인":9960,"협회":9961,"스포츠":9962,"가입":9963,"있게":9964,"월드":9965,"현실":9966,"2000":9967,"최종":9968,"정부의":9969,"필요한":9970,"분기":9971,"재판":9972,"이해":9973,"스로":9974,"청년":9975,"놓고":9976,"대통령은":9977,"올라":9978,"정부는":9979,"기반":9980,"제한":9981,"차를":9982,"전남":9983,"국정":9984,"전기":9985,"점이":9986,"설립":9987,"반영":9988,"재정":9989,"보였다":9990,"신고":9991,"머니":9992,"결국":9993,"새누리":9994,"상대":9995,"과정에서":9996,"등록":9997,"필요하다":9998,"랐다":9999,"전달":10000,"비를":10001,"반대":10002,"인트":10003,"공격":10004,"자원":10005,"나오":10006,"어떻":10007,"상당":10008,"와의":10009,"어린이":10010,"비해":10011,"로부터":10012,"자산":10013,"재단":10014,"회장은":10015,"전통":10016,"하이":10017,"주목":10018,")’":10019,"달라":10020,"야구":10021,"만나":10022,"수입":10023,"이란":10024,"취업":10025,"소재":10026,"내는":10027,"디어":10028,"지정":10029,"11월":10030,"되면서":10031,"마지":10032,"청소년":10033,"펀드":10034,"이기":10035,"자치":10036,"자기":10037,"같다":10038,"치고":10039,"어떻게":10040,"2월":10041,"지에":10042,"원에서":10043,"위험":10044,"담당":10045,"식품":10046,"민간":10047,"수상":10048,"원으로":10049,"새누리당":10050,"의혹":10051,"봉사":10052,"자들의":10053,"운드":10054,"드라마":10055,"해양":10056,"않는다":10057,"하자":10058,"부동산":10059,"그래":10060,"불법":10061,"스코":10062,"사례":10063,"투표":10064,"않을":10065,"역할을":10066,"어렵":10067,"문제가":10068,"소를":10069,"협의":10070,"소개":10071,"먼저":10072,"행복":10073,"이자":10074,"작가":10075,"불어":10076,"너무":10077,"호텔":10078,"하던":10079,"시험":10080,"버스":10081,"창업":10082,"골프":10083,"마지막":10084,"하도록":10085,"연속":10086,"강원":10087,"위로":10088,"일자리":10089,"과거":10090,"반도":10091,"메이":10092,"장기":10093,"21":10094,"대선":10095,"인도":10096,"학과":10097,"전히":10098,"전환":10099,"중이다":10100,"구매":10101,"높아":10102,"장의":10103,"위는":10104,"BC":10105,"않아":10106,"하락":10107,"바람":10108,"영국":10109,"만든":10110,"기다":10111,"박근":10112,"1000":10113,"유통":10114,"달리":10115,"요청":10116,"300":10117,"주가":10118,"인상":10119,"시대":10120,"뛰어":10121,"대신":10122,"지하":10123,"그의":10124,"않다":10125,"정신":10126,"비롯해":10127,"했으며":10128,"사로":10129,"내고":10130,"개의":10131,"근로":10132,"길을":10133,"린다":10134,"박근혜":10135,"개혁":10136,"오른":10137,"준다":10138,"점에서":10139,"교수는":10140,"5000":10141,"붙였다":10142,"여자":10143,"회담":10144,"인공":10145,"입장":10146,"방안":10147,"갔다":10148,"영상":10149,"없어":10150,"대통령이":10151,"제대로":10152,"구속":10153,"문제를":10154,"가치":10155,"친구":10156,"하거나":10157,"주로":10158,"35":10159,"보유":10160,"향후":10161,"있었":10162,"어느":10163,"통한":10164,"’,":10165,"부의":10166,"포인트":10167,"계를":10168,"음을":10169,"위치":10170,"모습을":10171,"내려":10172,"이가":10173,"끌어":10174,"움이":10175,"느냐":10176,"실제":10177,"방향":10178,"5일":10179,"인근":10180,"간의":10181,"또는":10182,"무엇":10183,"’(":10184,"회복":10185,"서로":10186,"전해":10187,"작년":10188,"활성화":10189,"3일":10190,"표현":10191,"비율":10192,"나무":10193,"제외":10194,"정규":10195,"서비스를":10196,"예방":10197,"명으로":10198,"in":10199,"er":10200,"억원을":10201,"축제":10202,"인구":10203,"이들은":10204,"민국":10205,"2차":10206,"량을":10207,"중심으로":10208,"베이":10209,"인지":10210,"온라인":10211,"제출":10212,"살아":10213,"교육청":10214,"조건":10215,"오늘":10216,"가능하다":10217,"거쳐":10218,"앞두고":10219,"장에":10220,"통과":10221,"광고":10222,"신문":10223,"90":10224,"2012년":10225,"목소":10226,"하는데":10227,"확정":10228,"대화":10229,"대한민국":10230,"덧붙였다":10231,"이사":10232,"가까":10233,"않았":10234,"관련해":10235,"방안을":10236,"1천":10237,"약을":10238,"외국인":10239,"인해":10240,"이들":10241,"평화":10242,"가정":10243,"2010년":10244,"KT":10245,"사회적":10246,"보니":10247,"감독은":10248,"발견":10249,"신규":10250,"관한":10251,"비교":10252,"전용":10253,"없었다":10254,"정도로":10255,"지나":10256,"제조":10257,"중단":10258,"코스":10259,"범죄":10260,"총리":10261,"가능한":10262,"독일":10263,"스마트폰":10264,"2008년":10265,"당국":10266,"외교":10267,"적을":10268,"프랑":10269,"누구":10270,"불과":10271,"등학교":10272,"못한":10273,"토론":10274,"편의":10275,"이벤":10276,"학년":10277,"공원":10278,"촬영":10279,"우리나라":10280,"일정":10281,"임금":10282,"정당":10283,"2일":10284,"시장은":10285,"이달":10286,"장과":10287,"미술":10288,"주장했다":10289,"부에":10290,"근무":10291,"21일":10292,"스터":10293,"채용":10294,"조금":10295,"쇼핑":10296,"어려운":10297,"10일":10298,"2011년":10299,"%),":10300,"연결":10301,"인수":10302,"상담":10303,"영향을":10304,"공무원":10305,"여름":10306,"국토":10307,"대통령의":10308,"사태":10309,"ww":10310,"체결":10311,"지로":10312,"보건":10313,"하기도":10314,"혜택":10315,"르고":10316,"36":10317,"사람이":10318,"많다":10319,"15일":10320,"수술":10321,"사항":10322,"사와":10323,"워크":10324,"못했다":10325,"말을":10326,"주식":10327,"3개":10328,"지적했다":10329,"20일":10330,"2만":10331,"금리":10332,"남북":10333,"텐츠":10334,"롭게":10335,"2014년":10336,"주도":10337,"음식":10338,"4일":10339,"자들은":10340,"..":10341,"리지":10342,"선언":10343,"입니다":10344,"있기":10345,"러시아":10346,"안타":10347,"전쟁":10348,"동의":10349,"수수":10350,"관심을":10351,"자리를":10352,"나선":10353,"on":10354,".\"":10355,"2009년":10356,"쉽게":10357,"투입":10358,"점검":10359,"2015년":10360,"최소":10361,"회원":10362,"규제":10363,"수석":10364,"7일":10365,"기초":10366,"가를":10367,"프로젝":10368,"고민":10369,"스가":10370,"나온다":10371,"8일":10372,"아버":10373,"결혼":10374,"자와":10375,"뿐만":10376,"변호":10377,"발언":10378,"스크":10379,"기회":10380,"어나":10381,"인데":10382,"겼다":10383,"얼마":10384,"모바":10385,"45":10386,"법인":10387,"씨의":10388,"9일":10389,"매년":10390,"창출":10391,"리에":10392,"여론":10393,"서도":10394,"소통":10395,"2013년":10396,"무역":10397,"조치":10398,"들여":10399,"유명":10400,"콘텐츠":10401,"시절":10402,"수도권":10403,"중요한":10404,"학습":10405,"더불어":10406,"반응":10407,"량이":10408,"금액":10409,"내가":10410,"자료":10411,"상의":10412,"11일":10413,"스러":10414,"홈페":10415,"세종":10416,"대는":10417,"12일":10418,"6일":10419,"작은":10420,"정은":10421,"동시에":10422,"할인":10423,"모바일":10424,"임을":10425,"움직":10426,"이렇게":10427,"대중":10428,"마케":10429,"원내":10430,"좋아":10431,"스럽":10432,"제안":10433,"물이":10434,"모집":10435,"시켜":10436,"서관":10437,"16일":10438,"수록":10439,"신용":10440,"내놓":10441,"확산":10442,"전망이다":10443,"14일":10444,"사망":10445,"33":10446,"보다는":10447,"등급":10448,"위반":10449,"줄어":10450,"더라도":10451,"소송":10452,"비중":10453,"매우":10454,"명은":10455,"전년":10456,"나왔다":10457,"다운":10458,"장으로":10459,"스토":10460,"18일":10461,"기록했다":10462,"농업":10463,"수의":10464,"22일":10465,"25일":10466,"지역의":10467,"시간을":10468,"르게":10469,"여야":10470,"17일":10471,"이지만":10472,"검사":10473,"충분":10474,"인식":10475,"기업의":10476,"강남":10477,"하겠다는":10478,"소비자":10479,"등은":10480,"가진":10481,"성에":10482,"단을":10483,"공모":10484,"플레이":10485,"구체":10486,"마케팅":10487,"재인":10488,"만의":10489,"장애인":10490,"19일":10491,"13일":10492,"개를":10493,"수밖에":10494,"26일":10495,"젊은":10496,"정의":10497,"23일":10498,"열리는":10499,"다만":10500,"고속":10501,"도전":10502,"연구소":10503,"27일":10504,"스스로":10505,"24일":10506,"바탕":10507,"1차":10508,"스의":10509,"20년":10510,"34":10511,"지자체":10512,"했을":10513,"화가":10514,"위가":10515,"내용을":10516,"구역":10517,"군은":10518,"도의":10519,"남자":10520,"내부":10521,"문학":10522,"도와":10523,"연금":10524,"맞아":10525,"한나라":10526,"테이":10527,"겨울":10528,"지면서":10529,"실을":10530,"연계":10531,"올랐다":10532,"국민의":10533,"분위":10534,"설계":10535,"국방":10536,"마이":10537,"기부":10538,"남아":10539,"IT":10540,"당선":10541,"형태":10542,"합니다":10543,"심사":10544,"국립":10545,"백화":10546,"28일":10547,"대의":10548,"충남":10549,"벌어":10550,"화학":10551,"파악":10552,"그렇":10553,"임대":10554,"인한":10555,"등장":10556,"차별":10557,"웠다":10558,"주시":10559,"보수":10560,"아무":10561,"영어":10562,"혐의로":10563,"an":10564,"지켜":10565,"계열":10566,"인증":10567,"대해서는":10568,"단은":10569,"인권":10570,"대변":10571,"트럼":10572,"못하고":10573,"정한":10574,"가량":10575,"체계":10576,"복합":10577,"어요":10578,"들에":10579,"38":10580,"2007년":10581,"심을":10582,"마무리":10583,"방침이다":10584,"사실을":10585,"공유":10586,"만원을":10587,"1위":10588,"변경":10589,"지원을":10590,"의견을":10591,"37":10592,"문재인":10593,"or":10594,"정보를":10595,"둘러":10596,"이른":10597,"강력":10598,"조사를":10599,"졸업":10600,"전북":10601,"집행":10602,"한나라당":10603,"노인":10604,"노래":10605,"가고":10606,"자녀":10607,"효율":10608,"보장":10609,"무료":10610,"들었다":10611,"분을":10612,"데이터":10613,"정권":10614,"있던":10615,"예비":10616,"한국당":10617,"상황에서":10618,"건물":10619,"전력":10620,"프라":10621,"리기":10622,"이상의":10623,"세가":10624,"소방":10625,"심의":10626,"곳에":10627,"펼쳐":10628,"출마":10629,"인재":10630,"투어":10631,"점은":10632,"성은":10633,"보이는":10634,"정이":10635,"수행":10636,"로는":10637,"추천":10638,"연기":10639,"이루":10640,"것이라는":10641,"힘을":10642,"시간이":10643,"처음으로":10644,"감이":10645,"사전":10646,"디오":10647,"결과를":10648,"아동":10649,"트럼프":10650,"인력":10651,"구청":10652,"생명":10653,"전반":10654,"코리아":10655,"그대로":10656,"점으로":10657,"얼굴":10658,"하우":10659,"시각":10660,"었고":10661,"선물":10662,"히려":10663,"공장":10664,"돈을":10665,"메달":10666,"비가":10667,"시장에서":10668,"2016년":10669,"되며":10670,"프랑스":10671,"',":10672,"나섰다":10673,"역을":10674,"대표팀":10675,"법을":10676,"화장":10677,"자격":10678,"사실상":10679,"4개":10680,"입장을":10681,"운용":10682,"했는데":10683,"월드컵":10684,"아름":10685,"생태":10686,"규모의":10687,"프로젝트":10688,"시도":10689,"파크":10690,"안보":10691,"전에서":10692,"1조":10693,"여전히":10694,"오픈":10695,"약속":10696,"5개":10697,"제품을":10698,"창원":10699,"만족":10700,"대기업":10701,"기구":10702,"1억":10703,"오히려":10704,"비슷":10705,"한화":10706,"기여":10707,"관광객":10708,"으로는":10709,"있는데":10710,"연간":10711,"비롯한":10712,"신뢰":10713,"명에":10714,"서울시":10715,"가스":10716,"관을":10717,"률이":10718,"프트":10719,"열고":10720,"행동":10721,"그림":10722,"패션":10723,"교체":10724,"위원장은":10725,"스티":10726,"주년":10727,"질문":10728,"회견":10729,"정확":10730,"홈페이지":10731,"한국의":10732,"관심이":10733,"교사":10734,"3000":10735,"인터뷰":10736,"우는":10737,"교류":10738,"CC":10739,"주차":10740,"으로써":10741,"싶다":10742,"55":10743,"였던":10744,"사상":10745,"달성":10746,"이러":10747,"이유로":10748,"39":10749,"32":10750,"최고의":10751,"이야기":10752,"하다는":10753,"꾸준":10754,"협상":10755,"부품":10756,"이트":10757,"전형":10758,"거의":10759,"알고":10760,"최초로":10761,"자에게":10762,"기소":10763,"야당":10764,"촉구":10765,"재산":10766,"맞춰":10767,"최저":10768,"발굴":10769,"부정":10770,"이로":10771,"독립":10772,"작용":10773,"48":10774,"나갈":10775,"니스":10776,"바탕으로":10777,"반발":10778,"상대로":10779,"육성":10780,"때는":10781,"도움이":10782,"대체":10783,"배치":10784,"교과":10785,"계획을":10786,"리즈":10787,"198":10788,"포항":10789,"년대":10790,"지금까지":10791,"적은":10792,"금지":10793,"후보는":10794,"란다":10795,"사장은":10796,"정기":10797,"31":10798,"세월":10799,"수업":10800,"그린":10801,"이명":10802,"관은":10803,"트로":10804,"넘는":10805,"봤다":10806,"법원":10807,"철도":10808,"KB":10809,"중에":10810,"통화":10811,"나와":10812,"신한":10813,"전화":10814,"인기":10815,"30분":10816,"기술을":10817,"열어":10818,"친환경":10819,"시장을":10820,"29일":10821,"대학교":10822,"존재":10823,"의원이":10824,"보이고":10825,"진흥":10826,"입주":10827,"품질":10828,"'(":10829,"진을":10830,"미디어":10831,"폭력":10832,"라운드":10833,"종목":10834,"원하는":10835,"프로그램을":10836,"베트":10837,"불편":10838,"연출":10839,"3만":10840,"네트":10841,"연구원":10842,"부와":10843,"KBS":10844,"속에":10845,"2017년":10846,"스페":10847,"책을":10848,"교육을":10849,"관객":10850,"능력":10851,"했으나":10852,"의무":10853,"시작했다":10854,"국무":10855,"심각":10856,"부상":10857,"행사를":10858,"바다":10859,"단이":10860,"시티":10861,"사과":10862,"MBC":10863,"채권":10864,"경찰은":10865,"협의회":10866,"그런데":10867,"400":10868,"화된":10869,"기자회견":10870,"공천":10871,"30일":10872,"예상된다":10873,"미국의":10874,"승리":10875,"두산":10876,"효과를":10877,"건의":10878,"면서도":10879,"러스":10880,"수로":10881,"위해서는":10882,"만한":10883,"65":10884,"기회를":10885,"NS":10886,"일으":10887,"남성":10888,"시장이":10889,"회에서":10890,"판결":10891,"사에":10892,"산물":10893,"요금":10894,"무대":10895,"선진":10896,"함을":10897,"연장":10898,"기억":10899,"매각":10900,"사업에":10901,"시장의":10902,"삼성전자":10903,"지의":10904,"CE":10905,"단순":10906,"밝혀":10907,"시의":10908,"건립":10909,"안이":10910,"나고":10911,"차가":10912,"이벤트":10913,"화재":10914,"받았":10915,"출발":10916,"실패":10917,"질환":10918,"없다는":10919,"관람":10920,"간다":10921,"물질":10922,"브라":10923,"행을":10924,"운전":10925,"매일":10926,"언급":10927,"구입":10928,"맞춤":10929,"1인":10930,"과정을":10931,"내에":10932,"자본":10933,"본다":10934,"스타일":10935,"협약":10936,"고교":10937,"정비":10938,"좋다":10939,"률을":10940,"시장에":10941,"곳에서":10942,"켰다":10943,"그가":10944,"셈이다":10945,"실천":10946,"47":10947,"지속적으로":10948,"시키는":10949,"회는":10950,"만드는":10951,"유일":10952,"46":10953,"점에":10954,"하라":10955,"간담":10956,"되기":10957,"공업":10958,"타이":10959,"49":10960,"많아":10961,"구를":10962,"건을":10963,"었지만":10964,"출전":10965,"ar":10966,"보내":10967,"맞는":10968,"절반":10969,"사람들이":10970,"실제로":10971,"관이":10972,"인간":10973,"규정":10974,"난다":10975,"거부":10976,"대규모":10977,"북한의":10978,"2천":10979,"경기를":10980,"특정":10981,"율이":10982,"들고":10983,"발표했다":10984,"메시":10985,"프리미":10986,"자에":10987,"시리즈":10988,"제2":10989,"대우":10990,"국회의원":10991,"총선":10992,"인으로":10993,"co":10994,"가져":10995,"것이라고":10996,"정규직":10997,"캠프":10998,"홈런":10999,"주거":11000,"지식":11001,"해소":11002,"드시":11003,"지키":11004,"바란다":11005,"출범":11006,"기의":11007,"시를":11008,"애플":11009,"강한":11010,"4대":11011,"잘못":11012,"인가":11013,"면을":11014,"학부모":11015,"으니":11016,"뉴욕":11017,"진은":11018,"문의":11019,"비상":11020,"해석":11021,"구간":11022,"다니":11023,"결승":11024,"이러한":11025,"받지":11026,"브리":11027,"높다":11028,"개막":11029,"베트남":11030,"가로":11031,"배출":11032,"al":11033,"분이":11034,"어디":11035,"지사":11036,"군사":11037,"2개":11038,"문제는":11039,"사라":11040,"응답":11041,"실적":11042,"요일":11043,"상에":11044,"데다":11045,"전혀":11046,"농협":11047,"고를":11048,"아래":11049,"이번에":11050,"보기":11051,"특수":11052,"순간":11053,"증을":11054,"현대차":11055,"만을":11056,"눈에":11057,"이명박":11058,"포스코":11059,"신경":11060,"동아":11061,"디지":11062,"드를":11063,"원전":11064,"면적":11065,"피언":11066,"조례":11067,"기업이":11068,"시킨":11069,"반드시":11070,"클럽":11071,"사이트":11072,"테크":11073,"AI":11074,"특징":11075,"원칙":11076,"완화":11077,"평가를":11078,"백화점":11079,"지와":11080,"우리가":11081,"허용":11082,"개편":11083,"적이다":11084,"완성":11085,"낮은":11086,"en":11087,"31일":11088,"단의":11089,"주기":11090,"하려는":11091,"지역에":11092,"라면":11093,"상황을":11094,"스러운":11095,"법률":11096,"품을":11097,"실에서":11098,"으로부터":11099,"한다면":11100,"진보":11101,"접근":11102,"인물":11103,"챔피언":11104,"여기에":11105,"정책을":11106,"자율":11107,"커피":11108,"가지고":11109,"주인공":11110,"것에":11111,"회의를":11112,"부장":11113,"걸쳐":11114,"엄마":11115,"평소":11116,"명예":11117,"주를":11118,"김영":11119,"관에서":11120,"취임":11121,"부처":11122,"요즘":11123,"등과":11124,"고양":11125,"실험":11126,"멤버":11127,"선생":11128,"신설":11129,"기와":11130,"경기에서":11131,"부인":11132,"저축":11133,"아내":11134,"미사":11135,"의사":11136,"속에서":11137,"자신이":11138,"주제로":11139,"이야기를":11140,"레스":11141,"리더":11142,"대표가":11143,"이면":11144,"도에":11145,"방식으로":11146,"분명":11147,"배경":11148,"등에서":11149,"위의":11150,"불안":11151,"검찰은":11152,"동물":11153,"재미":11154,"발표한":11155,"에만":11156,"사람은":11157,"돼야":11158,"자료를":11159,"어머니":11160,"담은":11161,"도내":11162,"그래서":11163,"초청":11164,"마음을":11165,"전날":11166,"카페":11167,"당한":11168,"제재":11169,"기고":11170,"입을":11171,"수용":11172,"우리는":11173,"줬다":11174,"시와":11175,"이탈":11176,"언제":11177,"가동":11178,"진이":11179,"데뷔":11180,"느낌":11181,"로서":11182,"씨를":11183,"디지털":11184,"지상":11185,"나눔":11186,"at":11187,"%(":11188,"첨단":11189,"환자":11190,"한번":11191,"부지":11192,"2006년":11193,"필요가":11194,"공약":11195,"TA":11196,"크다":11197,"75":11198,"확실":11199,"어야":11200,"세워":11201,"선고":11202,"직장":11203,"주말":11204,"정말":11205,"정해":11206,"네트워크":11207,"성남":11208,"기준으로":11209,"처벌":11210,"식이":11211,"가수":11212,"균형":11213,"하겠다고":11214,"상반기":11215,"피부":11216,"다르":11217,"격을":11218,"바이오":11219,"측이":11220,"것과":11221,"외부":11222,"나머":11223,"유의":11224,"진단":11225,"유리":11226,"44":11227,"재생":11228,"소리":11229,"국의":11230,"해를":11231,"역대":11232,"감안":11233,"으면서":11234,"찾는":11235,"자세":11236,"PC":11237,"전면":11238,"뮤지":11239,"사업은":11240,"앞으로도":11241,"창조":11242,"바른":11243,"도서관":11244,"주문":11245,"채널":11246,"보도했다":11247,"일보":11248,"서울대":11249,"당초":11250,"미세":11251,"유가":11252,"논란이":11253,"철저":11254,"접수":11255,"장관은":11256,"군의":11257,"슈퍼":11258,"효과가":11259,"세트":11260,"시작으로":11261,"자랑":11262,"보증":11263,"박물":11264,"59":11265,"하반기":11266,"이어서":11267,"아가":11268,"이재":11269,"소가":11270,"불가":11271,"통일":11272,"해운":11273,"는지":11274,"이용해":11275,"경우가":11276,"무상":11277,"초등학교":11278,"근거":11279,"새로":11280,"공직":11281,"수립":11282,"쏟아":11283,"계약을":11284,"이름을":11285,"불러":11286,"참석한":11287,"조차":11288,"태양":11289,"인하":11290,"천안":11291,"네이":11292,"강의":11293,"올렸다":11294,"돌파":11295,"거운":11296,"청구":11297,"임시":11298,"크로":11299,"곳이":11300,"파이":11301,"가을":11302,"경주":11303,"6개":11304,"길이":11305,"목을":11306,"에어":11307,"한반도":11308,"해왔다":11309,"세월호":11310,"성과를":11311,"삼성전":11312,"적극적으로":11313,"사업이":11314,"말까지":11315,"동원":11316,"청은":11317,"중국의":11318,"바라":11319,"알아":11320,"적이고":11321,"인기를":11322,"잡고":11323,"됐고":11324,"소설":11325,"말이":11326,"회에":11327,"IC":11328,"중요하다":11329,"느끼":11330,"뉴스":11331,"아니냐":11332,"매매":11333,"올리":11334,"해온":11335,"꾸준히":11336,"석유":11337,"올해는":11338,"텔레":11339,"후반":11340,"승을":11341,"오래":11342,"타고":11343,"5천":11344,"장학":11345,"안내":11346,"기지":11347,"노선":11348,"정리":11349,"상위":11350,"페이스":11351,"밝힌":11352,"인프라":11353,"보상":11354,"율을":11355,"자전":11356,"업종":11357,"부진":11358,"연맹":11359,"단독":11360,"집을":11361,"모아":11362,"통상":11363,"st":11364,"캠페":11365,"보이":11366,"정상회담":11367,"향상":11368,"구하고":11369,"충북":11370,"거듭":11371,"회의에서":11372,"률은":11373,"이처럼":11374,"전이":11375,"조기":11376,"PG":11377,"카메":11378,"가능성":11379,"포기":11380,"일은":11381,"못하는":11382,"없을":11383,"포함한":11384,"ST":11385,"성적":11386,"기능을":11387,"당이":11388,"공부":11389,"기아":11390,"식으로":11391,"콘서":11392,"학생들이":11393,"곳은":11394,"SNS":11395,"시작한":11396,"6개월":11397,"방지":11398,"실현":11399,"힘들":11400,"회장이":11401,"복귀":11402,"생을":11403,"경쟁력":11404,"오프":11405,"나이":11406,"직후":11407,"열린다":11408,"자주":11409,"실질":11410,"히는":11411,"장비":11412,"가격이":11413,"션을":11414,"에게는":11415,"얼마나":11416,"회가":11417,"분의":11418,"캐릭":11419,"오바":11420,"려는":11421,"FC":11422,"즐길":11423,"피해를":11424,"늘었다":11425,"IA":11426,"캐릭터":11427,"아주":11428,"혜택을":11429,"최선을":11430,"트리":11431,"아울":11432,"포럼":11433,"미리":11434,"지역에서":11435,"사퇴":11436,"도심":11437,"생각한다":11438,"공을":11439,"대결":11440,"소유":11441,"추정":11442,"이끌":11443,"상황이":11444,"만으로":11445,"군이":11446,"작성":11447,"자치단체":11448,"공단":11449,"위협":11450,"장소":11451,"긍정":11452,"150":11453,"업을":11454,"등도":11455,"58":11456,"형성":11457,"포함해":11458,"바뀌":11459,"사인":11460,"기금":11461,"원인":11462,"수학":11463,"만들기":11464,"동반":11465,"우고":11466,"억원의":11467,"으로서":11468,"후원":11469,"만이":11470,"이웃":11471,"집계":11472,"정치권":11473,"57":11474,"적절":11475,"정치적":11476,"가격은":11477,"만달러":11478,"클래":11479,"행위":11480,"억원으로":11481,"함으로써":11482,"나오고":11483,"율은":11484,"웨이":11485,"56":11486,"곳을":11487,"다음달":11488,"여기":11489,"겠다고":11490,"뜻을":11491,"공감":11492,"기계":11493,"바꾸":11494,"았던":11495,"절차":11496,"끝에":11497,"여명이":11498,"부채":11499,"농가":11500,"점이다":11501,"그렇게":11502,"분에":11503,"단일":11504,"갖춘":11505,"어를":11506,"활약":11507,"므로":11508,"오바마":11509,"니까":11510,"글을":11511,"발생한":11512,"이들이":11513,"과는":11514,"고위":11515,"완료":11516,"극복":11517,"수능":11518,"싶은":11519,"일어":11520,"상장":11521,"제의":11522,"중간":11523,"4000":11524,"시스템을":11525,"아웃":11526,"아침":11527,"타임":11528,"블랙":11529,"영업이익":11530,"지면":11531,"도움을":11532,"1회":11533,"로를":11534,"3천":11535,"자전거":11536,"유도":11537,"유엔":11538,"책임을":11539,"관계를":11540,"계층":11541,"주최":11542,"거주":11543,"위안":11544,"받는다":11545,"소프트":11546,"동을":11547,"후보가":11548,"나오는":11549,"예고":11550,"피스":11551,"모양":11552,"어렵다":11553,"남은":11554,"살펴":11555,"구는":11556,"되었다":11557,"주력":11558,"FA":11559,"당은":11560,"키로":11561,"취소":11562,"들로":11563,"신도시":11564,"수정":11565,"많았다":11566,"사에서":11567,"억달러":11568,"벤처":11569,"시설을":11570,"반도체":11571,"공공기관":11572,"안은":11573,"관계자":11574,"위해서":11575,"리의":11576,"경선":11577,"상공":11578,"고도":11579,"사법":11580,"제는":11581,"여부를":11582,"대학생":11583,"42":11584,"투명":11585,"대북":11586,"총장":11587,"트는":11588,"원자":11589,"시범":11590,"프리미엄":11591,"비난":11592,"긴급":11593,"측면":11594,"입학":11595,"이유는":11596,"선박":11597,"눈길을":11598,"북한이":11599,"헌법":11600,"CJ":11601,"년간":11602,"시의회":11603,"투수":11604,"위원회는":11605,"세요":11606,"들어가":11607,"운영하는":11608,"새롭게":11609,"연구원은":11610,"허가":11611,"여수":11612,"평창":11613,"66":11614,"상은":11615,"4만":11616,"말한다":11617,"앞에서":11618,"수비":11619,"오염":11620,"당의":11621,"팀이":11622,"조원":11623,"오르":11624,"FTA":11625,"흐름":11626,"목표로":11627,"www":11628,"빠져":11629,"43":11630,"가치를":11631,"아는":11632,"나머지":11633,"압박":11634,"일대":11635,"2018년":11636,"이드":11637,"쉽지":11638,"신을":11639,"명과":11640,"다소":11641,"가슴":11642,"당부":11643,"달아":11644,"비슷한":11645,"제공한다":11646,"임직원":11647,"빨리":11648,"5만":11649,"법무":11650,"보안":11651,"기울":11652,"디스":11653,"소화":11654,"아트":11655,"놀이":11656,"김정":11657,"마찬":11658,"빠른":11659,"올린":11660,"차원에서":11661,"선도":11662,"상호":11663,"서민":11664,"외에도":11665,"나누":11666,"나눠":11667,"부여":11668,"비즈":11669,"한미":11670,"상품을":11671,"남편":11672,"말로":11673,"치열":11674,"고속도로":11675,"구성된":11676,"인들이":11677,"마찬가지":11678,"하늘":11679,"걱정":11680,"2005년":11681,"침체":11682,"연주":11683,"출산":11684,"카메라":11685,"집단":11686,"철수":11687,"단속":11688,"상임":11689,"발전을":11690,"스럽게":11691,"표를":11692,"제공하는":11693,"비는":11694,"it":11695,"실무":11696,"지수":11697,"골을":11698,"어도":11699,"오를":11700,"검증":11701,"유로":11702,"치지":11703,"부과":11704,"않으면":11705,"해주":11706,"차지했다":11707,"녹색":11708,"사실이":11709,"52":11710,"높이":11711,"맞춤형":11712,"일본의":11713,"의도":11714,"제일":11715,"다면":11716,"고령":11717,"앞에":11718,"의해":11719,"있습니다":11720,"발행":11721,"연대":11722,"99":11723,"고가":11724,"수영":11725,"진입":11726,"연습":11727,"1위를":11728,"플랫":11729,"상징":11730,"당을":11731,"이라도":11732,"지휘":11733,"손을":11734,"양성":11735,"위치한":11736,"분위기":11737,"시킬":11738,"된다는":11739,"전해졌다":11740,"없고":11741,"잡아":11742,"대해서도":11743,"로드":11744,"결제":11745,"보일":11746,"대표적인":11747,"600":11748,"풀이":11749,"토지":11750,"41":11751,"6000":11752,"연을":11753,"수산":11754,"됐다고":11755,"창의":11756,"오랜":11757,"광역":11758,"문화재":11759,"컴퓨":11760,"국내외":11761,"차로":11762,"원과":11763,"특허":11764,"개국":11765,"더불어민주당":11766,"훨씬":11767,"상태다":11768,"불구하고":11769,"77":11770,"포르":11771,"작업을":11772,"충분히":11773,"기기":11774,"심리":11775,"못해":11776,"장면":11777,"려고":11778,"떨어진":11779,"순환":11780,"로봇":11781,"모임":11782,"시켰다":11783,"일단":11784,"CEO":11785,"지방선거":11786,"만난":11787,"화에":11788,"티브":11789,"ED":11790,"중공업":11791,"이끌어":11792,"갖추":11793,"따뜻":11794,"세로":11795,"밝히":11796,"유출":11797,"박람":11798,"과학기술":11799,"질을":11800,"과도":11801,"아울러":11802,"앨범":11803,"지어":11804,"사진을":11805,"GS":11806,"용인":11807,"따라서":11808,"이들의":11809,"대폭":11810,"고급":11811,"번호":11812,"은행은":11813,"렀다":11814,"아름다운":11815,"주주":11816,"교육감":11817,"서구":11818,"관련된":11819,"선두":11820,"통계":11821,"800":11822,"시한":11823,"취약":11824,"조작":11825,"구단":11826,"개방":11827,"쪽으로":11828,"2020년":11829,"정부와":11830,"플랫폼":11831,"8000":11832,"평양":11833,"회계":11834,"바닥":11835,"확장":11836,"마저":11837,"한국은":11838,"추가로":11839,"적발":11840,"됐던":11841,"택시":11842,"활용해":11843,"량은":11844,"감독이":11845,"경찰청":11846,"사업의":11847,"비행":11848,"급식":11849,"세금":11850,"액은":11851,"다이":11852,"영역":11853,"대기":11854,"초반":11855,"인과":11856,"구미":11857,"했기":11858,"53":11859,"kr":11860,"이승":11861,"현장에서":11862,"보고서":11863,"강제":11864,"형사":11865,"이행":11866,"선임":11867,"유산":11868,"주관":11869,"상황이다":11870,"re":11871,"테마":11872,"팀은":11873,"10시":11874,"성능":11875,"생활을":11876,"외에":11877,"축소":11878,"개설":11879,"폭행":11880,"무엇보다":11881,"CD":11882,"운행":11883,"화성":11884,"자이":11885,"융합":11886,"처분":11887,"탄생":11888,"지분":11889,"있었던":11890,"선호":11891,"때마다":11892,"초기":11893,"사회의":11894,"농촌":11895,"강력한":11896,"폐지":11897,"보를":11898,"뮤지컬":11899,"그리":11900,"미사일":11901,"구가":11902,"활발":11903,"IS":11904,"예산을":11905,"직업":11906,"점유":11907,"어려움을":11908,"홍콩":11909,"문화예술":11910,"대책을":11911,"SBS":11912,"리스트":11913,"상생":11914,"가능성을":11915,"조를":11916,"순위":11917,"것처럼":11918,"폭발":11919,"사이에":11920,"가까운":11921,"가가":11922,"권한":11923,"스와":11924,"차단":11925,"동해":11926,"1개":11927,"추석":11928,"개념":11929,"이라면":11930,"노력을":11931,"합격":11932,"지금은":11933,"적극적인":11934,"조치를":11935,"유니":11936,"급증":11937,"상대적으로":11938,"197":11939,"운동을":11940,"답했다":11941,"임명":11942,"예측":11943,"일상":11944,"청문":11945,"니어":11946,"봐야":11947,"제약":11948,"km":11949,"매입":11950,"자문":11951,"거론":11952,"증거":11953,"노무":11954,"저녁":11955,"부터는":11956,"머리":11957,"연극":11958,"67":11959,"깊은":11960,"하면서도":11961,"증가했다":11962,"물류":11963,"타운":11964,"호선":11965,"퇴직":11966,"대사":11967,"방문해":11968,"적지":11969,"발을":11970,"폐기":11971,"자리에서":11972,"체를":11973,"돌려":11974,"겠지만":11975,"컴퓨터":11976,"무기":11977,"68":11978,"전공":11979,"씨와":11980,"절대":11981,"재무":11982,"판을":11983,"나다":11984,"려면":11985,"전주":11986,"른다":11987,"올려":11988,"중한":11989,"내에서":11990,"아이디어":11991,"과제":11992,"스키":11993,"권력":11994,"표준":11995,"개입":11996,"고등학교":11997,"누구나":11998,"김성":11999,"호남":12000,"하고자":12001,"마크":12002,"대회에서":12003,"지배":12004,"인생":12005,"여건":12006,"시키고":12007,"프리카":12008,"그녀":12009,"우려가":12010,"반복":12011,"마감":12012,"부실":12013,"미세먼":12014,"악화":12015,"확인할":12016,"점도":12017,"수주":12018,"IP":12019,"구체적인":12020,"진행된다":12021,"않도록":12022,"웨어":12023,"기대된다":12024,"연예":12025,"심히":12026,"열었다":12027,"이용할":12028,"위원은":12029,"특별한":12030,"원장은":12031,"면접":12032,"콘서트":12033,"편성":12034,"주행":12035,"7000":12036,"전문가들은":12037,"달하는":12038,"지하철":12039,"절차를":12040,"벗어나":12041,"비아":12042,"대변인은":12043,"4차":12044,"혐의를":12045,"빠르게":12046,"아들":12047,"먼트":12048,"2위":12049,"강원도":12050,"플러스":12051,"의한":12052,"박물관":12053,"호주":12054,"삶의":12055,"본격적인":12056,"계기로":12057,"장치":12058,"명품":12059,"크리스":12060,"트위":12061,"운영하고":12062,"텔레콤":12063,"김해":12064,"에스":12065,"법정":12066,"소식":12067,"도착":12068,"마리":12069,"만들었다":12070,"84":12071,"분야에서":12072,"훼손":12073,"때까지":12074,"팀을":12075,"머물":12076,"늘어난":12077,"69":12078,"호흡":12079,"합리":12080,"아마":12081,"이틀":12082,"2억":12083,"서류":12084,"실업":12085,"매장":12086,"주지":12087,"종의":12088,"신속":12089,"현금":12090,"ic":12091,"컨설":12092,"경쟁력을":12093,"중학교":12094,"반응을":12095,"라스":12096,"답변":12097,"54":12098,"10여":12099,"론을":12100,"해주는":12101,"전부터":12102,"문이":12103,"추진하고":12104,"차는":12105,"선이":12106,"현행":12107,"회장의":12108,"10만":12109,"가르":12110,"자들에게":12111,"문화를":12112,"공헌":12113,"상금":12114,"브라질":12115,"드러났다":12116,"고통":12117,"모여":12118,"심한":12119,"화려":12120,"카오":12121,"우리의":12122,"재난":12123,"가까이":12124,"최대한":12125,"손해":12126,"소녀":12127,"계가":12128,"득점":12129,"3개월":12130,"경고":12131,"있지":12132,"부대":12133,"모니":12134,"특성":12135,"투자를":12136,"징역":12137,"테러":12138,"진행한다":12139,"우드":12140,"2019년":12141,"세포":12142,"가득":12143,"3차":12144,"변화를":12145,"지능":12146,"페이스북":12147,"인들의":12148,"동일":12149,"이슈":12150,"의식":12151,"제거":12152,"계좌":12153,"1명":12154,"유기":12155,"비밀":12156,"하다고":12157,"호소":12158,"맞은":12159,"참여한":12160,"김태":12161,"법에":12162,"미니":12163,"현황":12164,"당연":12165,"리며":12166,"입찰":12167,"88":12168,"스피":12169,"이같이":12170,"상무":12171,"저렴":12172,"필수":12173,"계의":12174,"동구":12175,"이던":12176,"결과가":12177,"대법":12178,"떠나":12179,"설비":12180,"20여":12181,"메이저":12182,"사건을":12183,"체제":12184,"수시":12185,"“(":12186,"할머니":12187,"마치":12188,"능력을":12189,"ing":12190,"결의":12191,"LED":12192,"절감":12193,"이르":12194,"배를":12195,"삶을":12196,"선의":12197,"피아":12198,"감독의":12199,"검색":12200,"금메달":12201,"지원하는":12202,"공연을":12203,"우승을":12204,"전개":12205,"희생":12206,"우주":12207,"파업":12208,"시내":12209,"le":12210,"취재":12211,"감염":12212,"의심":12213,"춘천":12214,"주일":12215,"아쉬":12216,"어진":12217,"내다":12218,"호는":12219,"보통":12220,"술을":12221,"4천":12222,"고발":12223,"경찰에":12224,"양산":12225,"민족":12226,"막을":12227,"남녀":12228,"력과":12229,"동료":12230,"EU":12231,"화장품":12232,"2019":12233,"목적":12234,"완벽":12235,"8개":12236,"원장":12237,"대회를":12238,"드로":12239,"7개":12240,"아르":12241,"조언":12242,"활용한":12243,"작품을":12244,"부담을":12245,"수요가":12246,"김정은":12247,"세운":12248,"짜리":12249,"비판했다":12250,"64":12251,"스카":12252,"트위터":12253,"9시":12254,"자들을":12255,"소는":12256,"노후":12257,"지인":12258,"예약":12259,"이정":12260,"트렌":12261,"지기":12262,"기자회견을":12263,"마켓":12264,"풀어":12265,"안산":12266,"컬러":12267,"지역을":12268,"세상":12269,"영양":12270,"사들이":12271,"방을":12272,"합병":12273,"사용할":12274,"이탈리아":12275,"식당":12276,"이닝":12277,"2004년":12278,"외환":12279,"에이":12280,"보완":12281,"사랑을":12282,"힘든":12283,"모르":12284,"았고":12285,"사람의":12286,"개별":12287,"모습이":12288,"니아":12289,"양국":12290,"기회가":12291,"열심히":12292,"용역":12293,"초등":12294,"85":12295,"나올":12296,"취득":12297,"아야":12298,"환경을":12299,"개봉":12300,"동부":12301,"당장":12302,"분리":12303,"진영":12304,"없다고":12305,"의지를":12306,"기대한다":12307,"가야":12308,"연봉":12309,"신호":12310,"산업단지":12311,"기록을":12312,"업무를":12313,"수치":12314,"쓰는":12315,"리어":12316,"NC":12317,"파견":12318,"까지는":12319,"늘고":12320,"위에서":12321,"리로":12322,"흔들":12323,"리조":12324,"안팎":12325,"사업으로":12326,"지에서":12327,"수급":12328,"20대":12329,"지역사회":12330,"저축은행":12331,"도민":12332,"하나로":12333,"분위기를":12334,"노출":12335,"보급":12336,"등이다":12337,"임원":12338,"제외한":12339,"3대":12340,"더니":12341,"낸다":12342,"보육":12343,"형을":12344,"블루":12345,"되자":12346,"산업의":12347,"부천":12348,"채택":12349,"상황에":12350,"고기":12351,"학생들의":12352,"출판":12353,"관련한":12354,"블록":12355,"급여":12356,"내용이":12357,"평생":12358,"차이":12359,"KIA":12360,"청약":12361,"가졌다":12362,"시기":12363,"2명":12364,"야권":12365,"정지":12366,"점포":12367,"시상":12368,"51":12369,"적합":12370,"지주":12371,"생존":12372,"향해":12373,"성의":12374,"갤럭":12375,"진료":12376,"제도를":12377,"농구":12378,"확충":12379,"고향":12380,"총리는":12381,"받게":12382,"연령":12383,"비정규직":12384,"경험을":12385,"주간":12386,"63":12387,"나설":12388,"김종":12389,"자유한국당":12390,"구제":12391,"일제":12392,"동계":12393,"심각한":12394,"경기가":12395,"얘기":12396,"휴대":12397,"세계적인":12398,"영남":12399,"내기":12400,"이었":12401,"투쟁":12402,"사회복지":12403,"잡았다":12404,"테인":12405,"PGA":12406,"법안":12407,"수준으로":12408,"구글":12409,"재료":12410,"혼자":12411,"징계":12412,"프로야구":12413,"경찰서":12414,"하려면":12415,"합동":12416,"MC":12417,"성장을":12418,"총괄":12419,"비전":12420,"지진":12421,"프레":12422,"쓰고":12423,"우수한":12424,"경을":12425,"의미를":12426,"이상을":12427,"만들고":12428,"전세":12429,"메르":12430,"연말":12431,"기록한":12432,"비즈니스":12433,"불리는":12434,"키워":12435,"민주주의":12436,"--":12437,"지검":12438,"동기":12439,"친다":12440,"수준의":12441,"지게":12442,"노사":12443,"감정":12444,"경제적":12445,"분석했다":12446,"수사를":12447,"전략을":12448,"지적이":12449,"초과":12450,"참여하는":12451,"대만":12452,"의결":12453,"해진":12454,"듣고":12455,"리와":12456,"700":12457,"바꿔":12458,"오고":12459,"일까":12460,"기사":12461,"소에":12462,"모씨":12463,"됐지만":12464,"수수료":12465,"목소리를":12466,"충청":12467,"동에":12468,"새벽":12469,"시안":12470,"무려":12471,"내용의":12472,"란드":12473,"이사회":12474,"란히":12475,"어로":12476,"정체":12477,"지연":12478,"컨설팅":12479,"팀의":12480,"시했다":12481,"대리":12482,"품목":12483,"법적":12484,"기준을":12485,"7시":12486,"기타":12487,"은퇴":12488,"쓰레":12489,"에서의":12490,"페스티":12491,"업체가":12492,"SK텔레콤":12493,"오피스":12494,"알려진":12495,"결합":12496,"문제에":12497,"가게":12498,"미를":12499,"확인됐다":12500,"자살":12501,"갤럭시":12502,"이의":12503,"발사":12504,"맡은":12505,"연수":12506,"신세계":12507,"됐으며":12508,"아프리카":12509,"놨다":12510,"선보인다":12511,"무게":12512,"자리에":12513,"명령":12514,"영입":12515,"차이가":12516,"지속적인":12517,"느껴":12518,"부서":12519,"사드":12520,"규모로":12521,"사기":12522,"대통령과":12523,"모를":12524,"재건축":12525,"제1":12526,"조달":12527,"풍부":12528,"11시":12529,"수십":12530,"편리":12531,"선사":12532,"이상이":12533,"찾은":12534,"방법을":12535,"가계":12536,"활동에":12537,"이사장":12538,"정착":12539,"사고가":12540,"보자":12541,"됐다는":12542,"주석":12543,"예능":12544,"먹는":12545,"전지":12546,"져야":12547,"선출":12548,"이내":12549,"분류":12550,"물의":12551,"아버지":12552,"권에":12553,"하나의":12554,"페스티벌":12555,"내렸다":12556,"센터는":12557,"앞장":12558,"낮아":12559,"파트너":12560,"자금을":12561,"이른바":12562,"9000":12563,"인다":12564,"협약을":12565,"동네":12566,"제3":12567,"개통":12568,"아이템":12569,"공사가":12570,"힌다":12571,"상업":12572,"4대강":12573,"기상":12574,"전당":12575,"6시":12576,"달려":12577,"도쿄":12578,"추세":12579,"매력":12580,"꿈을":12581,"뛰어난":12582,"공사는":12583,"훈련을":12584,"et":12585,"비로":12586,"당부했다":12587,"뮤니":12588,"평택":12589,"모색":12590,"여론조사":12591,"자극":12592,"패를":12593,"금은":12594,"모으":12595,"신입":12596,"치료를":12597,"종료":12598,"센터에서":12599,"방어":12600,"수리":12601,"문제로":12602,"완전히":12603,"선수들이":12604,"커뮤니":12605,"MO":12606,"기업을":12607,"질문에":12608,"개발을":12609,"움직임":12610,"규모가":12611,"72":12612,"6만":12613,"주민들의":12614,"김포":12615,"앞둔":12616,"증가한":12617,"플레":12618,"법이":12619,"그러면서":12620,"ion":12621,"누가":12622,"출입":12623,"의원의":12624,"승리를":12625,"터리":12626,"안에서":12627,"담보":12628,"실내":12629,"타이어":12630,"오리":12631,"만원의":12632,"액을":12633,"설명이다":12634,"조사됐다":12635,"충돌":12636,"화와":12637,"생각이":12638,"he":12639,"카카오":12640,"공간을":12641,"물가":12642,"충격":12643,"학원":12644,"진행하고":12645,"중구":12646,"지출":12647,"부부":12648,"조절":12649,"액이":12650,"다수":12651,"되도록":12652,"부르":12653,"금속":12654,"집에":12655,"손님":12656,"100만":12657,"약품":12658,"발휘":12659,"ou":12660,"직을":12661,"순천":12662,"정확한":12663,"침해":12664,"고등":12665,"하더라도":12666,"학을":12667,"차기":12668,"메뉴":12669,"매체":12670,"주년을":12671,"억원에":12672,"자들":12673,"자체가":12674,"어울":12675,"유사":12676,"내지":12677,"연휴":12678,"기업에":12679,"대처":12680,"보조":12681,"안양":12682,"소형":12683,"세기":12684,"산림":12685,"대표의":12686,"공화":12687,"대거":12688,"일이다":12689,"10개":12690,"최소화":12691,"통보":12692,"때도":12693,"질병":12694,"고려해":12695,"BM":12696,"엔터":12697,"지표":12698,"그를":12699,"이용한":12700,"드리":12701,"생각을":12702,"전투":12703,"노무현":12704,"담긴":12705,"공동체":12706,"변호사":12707,"사람을":12708,"국회에서":12709,"승인":12710,"물러":12711,"철강":12712,"해상":12713,"단에":12714,"전은":12715,"매주":12716,"처음이다":12717,"정에":12718,"...":12719,"중심의":12720,"휴대전":12721,"조명":12722,"com":12723,"뒀다":12724,"통제":12725,"세력":12726,"세종시":12727,"권이":12728,"비중이":12729,"노총":12730,"3명":12731,"전의":12732,"놓은":12733,"진의":12734,"기후":12735,"천연":12736,"대구시":12737,"비용을":12738,"폐쇄":12739,"끌고":12740,"1층":12741,"활성화를":12742,"어르":12743,"재개":12744,"다문화":12745,"보유한":12746,"그룹은":12747,"금호":12748,"역량":12749,"진행된":12750,"타를":12751,"경기에":12752,"구현":12753,"겪고":12754,"승부":12755,"있다면":12756,"상가":12757,"옮겨":12758,"한강":12759,"안철수":12760,"유권":12761,"30년":12762,"가맹":12763,"레이드":12764,"어서":12765,"센터를":12766,"부족한":12767,"나를":12768,"넘게":12769,"끝난":12770,"소외":12771,"의장":12772,"불가피":12773,"연락":12774,"구에":12775,"성향":12776,"이르는":12777,"런던":12778,"이기도":12779,"맞이":12780,"사용하는":12781,"공사를":12782,"행사는":12783,"공개했다":12784,"베이징":12785,"실이":12786,"위원회를":12787,"면세":12788,"유력":12789,"있어서":12790,"나의":12791,"나선다":12792,"연설":12793,"새정치":12794,"내야":12795,"화물":12796,"요구했다":12797,"재해":12798,"신이":12799,"이제는":12800,"정원":12801,"최다":12802,"자신을":12803,"폴리":12804,"권의":12805,"의미가":12806,"실시간":12807,"항상":12808,"긴장":12809,"분간":12810,"79":12811,"달라고":12812,"획득":12813,"궁금":12814,"배상":12815,"착수":12816,"주민들이":12817,"비리":12818,"제공하고":12819,"캠퍼":12820,"담아":12821,"참여해":12822,"동참":12823,"시급":12824,"할지":12825,"망을":12826,"지자":12827,"위원회가":12828,"30여":12829,"실태":12830,"연료":12831,"좋겠다":12832,"3D":12833,"의사를":12834,"이주":12835,"리트":12836,"산하":12837,"늦게":12838,"탄소":12839,"남부":12840,"내린":12841,"공략":12842,"분쟁":12843,"매수":12844,"예금":12845,"파워":12846,"배당":12847,"면에":12848,"202":12849,"전담":12850,"78":12851,"군에":12852,"말고":12853,"시민들의":12854,"케어":12855,"각을":12856,"MB":12857,"줄었다":12858,"2018":12859,"비서":12860,"역량을":12861,"항의":12862,"결정을":12863,"마친":12864,"느낄":12865,"캐나다":12866,"시민단체":12867,"마련했다":12868,"요리":12869,"처를":12870,"합류":12871,"부담이":12872,"신인":12873,"저소득":12874,"블로":12875,"입은":12876,"강릉":12877,"종교":12878,"제목":12879,"시작된":12880,"따뜻한":12881,"생긴":12882,"잡은":12883,"2시":12884,"분야의":12885,"62":12886,"친박":12887,"PD":12888,"혁명":12889,")·":12890,"6천":12891,"의혹을":12892,"그려":12893,"알려져":12894,"자원봉사":12895,"이래":12896,"베스트":12897,"먹고":12898,"2002년":12899,"선수가":12900,"선에":12901,"찬성":12902,"같아":12903,"그만큼":12904,"근본":12905,"경향":12906,"물리":12907,"질의":12908,"동성":12909,"건으로":12910,"행복한":12911,"지사는":12912,"방사":12913,"모니터":12914,"계산":12915,"지역경제":12916,"후보를":12917,"하우스":12918,"발의":12919,"중동":12920,"한정":12921,"설정":12922,"모두가":12923,"있어야":12924,"푸드":12925,"수많은":12926,"준공":12927,"잇따라":12928,"클래식":12929,"진로":12930,"OC":12931,"관리를":12932,"때부터":12933,"페이":12934,"인터뷰에서":12935,"질이":12936,"참석했다":12937,"거리를":12938,"가의":12939,"점차":12940,"사람들은":12941,"이중":12942,"케이블":12943,"유아":12944,"김현":12945,"전한":12946,"아니냐는":12947,"학술":12948,"였고":12949,"본격적으로":12950,"동생":12951,"류현":12952,"음이":12953,"저지":12954,"사령":12955,"형태로":12956,"보관":12957,"대와":12958,"아베":12959,"더해":12960,"석을":12961,"후배":12962,"결과에":12963,"상환":12964,"세이":12965,"함에":12966,"2003년":12967,"태양광":12968,"호가":12969,"금이":12970,"나면":12971,"원자력":12972,"마라":12973,"아우":12974,"개발에":12975,"감시":12976,"1분기":12977,"번에":12978,"나지":12979,"이익을":12980,"미만":12981,"수와":12982,"어려워":12983,"2층":12984,"61":12985,"테스트":12986,"2배":12987,"신청을":12988,"기업들이":12989,"섬유":12990,"영상을":12991,"1인당":12992,"체포":12993,"소환":12994,"맡아":12995,"위기를":12996,"팀장은":12997,".'":12998,"보존":12999,"구조조정":13000,"스페인":13001,"관측":13002,"만남":13003,"2조":13004,"않게":13005,"보며":13006,"심이":13007,"부탁":13008,"구의":13009,"선수권":13010,"2000년":13011,"위원장이":13012,"120":13013,"드림":13014,"여부":13015,"해안":13016,"회사의":13017,"곳으로":13018,"무너":13019,"국세":13020,"계기가":13021,"제철":13022,"갑자기":13023,"했습니다":13024,"맡고":13025,"배제":13026,"박정":13027,"용품":13028,"기간에":13029,"일에":13030,"원정":13031,"함이":13032,"이같은":13033,"동력":13034,"대한항공":13035,"신의":13036,"이어질":13037,"방식을":13038,"종사":13039,"의뢰":13040,"교환":13041,"밴드":13042,"진정":13043,"치러":13044,"기온":13045,"신임":13046,"접촉":13047,"방해":13048,"상인":13049,"현안":13050,"창작":13051,"화로":13052,"은행의":13053,"것이란":13054,"내용은":13055,"입법":13056,"하려고":13057,"추억":13058,"지역은":13059,"뜨거운":13060,"사회공헌":13061,"따로":13062,"물에":13063,"투자증권":13064,"명했다":13065,"8시":13066,"세미":13067,"전인":13068,"직한":13069,"TF":13070,"평가했다":13071,"수익을":13072,"성격":13073,"과장은":13074,"스타트":13075,"유해":13076,"추구":13077,"동이":13078,"소장":13079,"은행이":13080,"촉구했다":13081,"플랜":13082,"비서관":13083,"재를":13084,"민원":13085,"직무":13086,"3억":13087,"다리":13088,"유발":13089,"치매":13090,"현재까지":13091,"기존의":13092,"디아":13093,"196":13094,"고는":13095,"파리":13096,"차지하는":13097,"응원":13098,"스위":13099,"시간에":13100,"역사를":13101,"혼란":13102,"가능성도":13103,"그쳤다":13104,"가격을":13105,"돌입":13106,"곳의":13107,"국내에서":13108,"총장은":13109,"경찰이":13110,"올랐":13111,"듯한":13112,"둘러싼":13113,"못할":13114,"이민":13115,"네이버":13116,"일각":13117,"점과":13118,"배려":13119,"현지시간":13120,"축하":13121,"진술":13122,"예를":13123,"메시지를":13124,"노트":13125,"성인":13126,"대장":13127,"목소리가":13128,"관의":13129,"개발한":13130,"교과서":13131,"가락":13132,"시사":13133,"선생님":13134,"화는":13135,"관계가":13136,"커지고":13137,"저는":13138,"기업은":13139,"1로":13140,"만원으로":13141,"미래를":13142,"인사를":13143,"명확":13144,"실에":13145,"95":13146,"나가는":13147,"솔루":13148,"무용":13149,"개헌":13150,"진짜":13151,"측의":13152,"공기":13153,"정부에":13154,"이었던":13155,"들어서":13156,"한국을":13157,"단기":13158,"보냈다":13159,"축산":13160,"TE":13161,"혹은":13162,"기업인":13163,"제품은":13164,"미국과":13165,"미세먼지":13166,"특검":13167,"전망했다":13168,"시위":13169,"협정":13170,"2회":13171,"무대에":13172,"마음이":13173,"소송을":13174,"고소":13175,"보여주는":13176,"감한":13177,"해수":13178,"발급":13179,"췄다":13180,"전망된다":13181,"여당":13182,"협력을":13183,"재배":13184,"김재":13185,"특징이다":13186,"싱가":13187,"몰아":13188,"맛을":13189,"물로":13190,"졌고":13191,"입고":13192,"몸을":13193,"허위":13194,"규모는":13195,"제조업":13196,"살고":13197,"이종":13198,"어르신":13199,"국을":13200,"잠재":13201,"안동":13202,"있으면":13203,"선보였다":13204,"간에":13205,"무슨":13206,"숨을":13207,"심판":13208,"법은":13209,"보이지":13210,"사우":13211,"민의":13212,"만약":13213,"검찰이":13214,"코스피":13215,"산을":13216,"클라":13217,"표시":13218,"발생하는":13219,"근로자":13220,"호응":13221,"정식":13222,"아시안":13223,"트랙":13224,"대법원":13225,"한국에":13226,"함께하는":13227,"요구하는":13228,"코치":13229,"승객":13230,"달한다":13231,"시민의":13232,"서울중앙":13233,"선배":13234,"내리":13235,"높이는":13236,"전과":13237,"었을":13238,"진행됐다":13239,"비율이":13240,"항을":13241,"라디오":13242,"철거":13243,"소식을":13244,"순으로":13245,"그리스":13246,"맞추":13247,"기반으로":13248,"든다":13249,"이미지를":13250,"엔터테인":13251,"화의":13252,"마당":13253,"현상":13254,"단위":13255,"최우수":13256,"평을":13257,"보낸":13258,"7천":13259,"의견이":13260,"플루":13261,"74":13262,"대표하는":13263,"패키":13264,"끄는":13265,"어가":13266,"기대하고":13267,"어린이집":13268,"입증":13269,"그룹의":13270,"다르다":13271,"7만":13272,").":13273,"레드":13274,"보지":13275,"어깨":13276,"뿐이다":13277,"항만":13278,"도청":13279,"촉진":13280,"대행":13281,"현장을":13282,"원내대표":13283,"납품":13284,"왔던":13285,"있는지":13286,"30대":13287,"세부":13288,"피해가":13289,"실시한":13290,"원내대표는":13291,"발전소":13292,"박람회":13293,"협조":13294,"와이":13295,"추모":13296,"주류":13297,"당일":13298,"북부":13299,"상상":13300,"수렴":13301,"종을":13302,"설득":13303,"추진할":13304,"간부":13305,"내달":13306,"덕분에":13307,"스에":13308,"설문":13309,"씨에게":13310,"국이":13311,"유입":13312,"종이":13313,"필리":13314,"목표를":13315,"동양":13316,"위탁":13317,"무료로":13318,"페라":13319,"이벤트를":13320,"02":13321,"완공":13322,"LH":13323,"SM":13324,"후보로":13325,"가전":13326,"된다고":13327,"들이다":13328,"케이션":13329,"경계":13330,"국장":13331,"쇼핑몰":13332,"전까지":13333,"놀라":13334,"캠페인":13335,"노하우":13336,"마산":13337,"태풍":13338,"아빠":13339,"건조":13340,"최저임금":13341,"실은":13342,"살인":13343,"복원":13344,"아예":13345,"막기":13346,"게시":13347,"맞게":13348,"9개":13349,"회사가":13350,"높이고":13351,"단과":13352,"100여":13353,"구로":13354,"몰려":13355,"선은":13356,"편안":13357,"NH":13358,"피해자":13359,"노력하겠다":13360,"저장":13361,"일방":13362,"곳이다":13363,"중국이":13364,"관람객":13365,"포장":13366,"한층":13367,"단한":13368,"한국인":13369,"갤러":13370,"뮤직":13371,"강연":13372,"로스":13373,"제정":13374,"하자는":13375,"이천":13376,"연구개발":13377,"가상":13378,"얻고":13379,"힘이":13380,"뱅크":13381,"토대로":13382,"시원":13383,"음에도":13384,"부당":13385,"하다가":13386,"관에":13387,"누적":13388,"일정을":13389,"터를":13390,"종류":13391,"부회장":13392,"갖춰":13393,"지며":13394,"사이버":13395,"선정된":13396,"세상을":13397,"응급":13398,"학생들은":13399,"최적":13400,"관과":13401,"8천":13402,"이마트":13403,"공동으로":13404,"아카":13405,"최고위원":13406,"NG":13407,"점점":13408,"총재":13409,"최근에는":13410,"빠진":13411,"세웠다":13412,"250":13413,"김씨는":13414,"디스플레이":13415,"서가":13416,"한국과":13417,"대안":13418,"줄이":13419,"농민":13420,"싱턴":13421,"즉각":13422,"참여할":13423,"높였다":13424,"기획재":13425,"농산물":13426,"화해":13427,"타격":13428,"온다":13429,"가치가":13430,"서초":13431,"업체인":13432,"나도":13433,">(":13434,"네시아":13435,"성적을":13436,"중국은":13437,"장관이":13438,"건강한":13439,"적으로는":13440,"소로":13441,"박사":13442,"와는":13443,"결정했다":13444,"용산":13445,"숙박":13446,"김진":13447,"안심":13448,"털어":13449,"재판부는":13450,"연다":13451,"oo":13452,"집에서":13453,"한국이":13454,"휴대폰":13455,"김동":13456,"지방자치단체":13457,"3년간":13458,"시대를":13459,"감축":13460,"명절":13461,"벌이고":13462,"청소":13463,"엄청":13464,"공포":13465,"만명":13466,"브리핑":13467,"상영":13468,"매치":13469,"경력":13470,"금리를":13471,"정밀":13472,"비대":13473,"1호":13474,"접한":13475,"비핵":13476,"(-":13477,"과연":13478,"당사":13479,"뒤를":13480,"실행":13481,"추진하는":13482,"개선을":13483,"싱가포르":13484,"아이들이":13485,"가공":13486,"언더":13487,"금강":13488,"치게":13489,"수준이다":13490,"아산":13491,"인도네시아":13492,"탓에":13493,"사고를":13494,"사항을":13495,"증정":13496,"위기에":13497,"도의회":13498,"선정됐다":13499,"시정":13500,"포털":13501,"내내":13502,"곧바로":13503,"화려한":13504,"싸움":13505,"갈수록":13506,"키스":13507,"독서":13508,"무한":13509,"출석":13510,"레인":13511,"하천":13512,"89":13513,"금감":13514,"찾았다":13515,"기업으로":13516,"급격":13517,"관절":13518,"갈등":13519,"증이":13520,"업계에":13521,"하니":13522,"떨어졌다":13523,"대부분의":13524,"사람들의":13525,"수에":13526,"대해선":13527,"승진":13528,"대에서":13529,"터미":13530,"중도":13531,"있을까":13532,"독자":13533,"주제":13534,"차세대":13535,"세에":13536,"76":13537,"이어졌다":13538,"GM":13539,"학생이":13540,"ac":13541,"대화를":13542,"계열사":13543,"AP":13544,"전원":13545,"여객":13546,"전기차":13547,"국장은":13548,"생물":13549,"떨어져":13550,"중견":13551,"참고":13552,"미국이":13553,"후보자":13554,"방위":13555,"방향을":13556,"아이폰":13557,"집계됐다":13558,"판사":13559,"1시간":13560,"어촌":13561,"착공":13562,"수집":13563,"국토교통":13564,"넥센":13565,"사건이":13566,"활용할":13567,"지역으로":13568,"찾기":13569,"기관의":13570,"도교육청":13571,"반박":13572,"김상":13573,"타워":13574,"해졌다":13575,"강하게":13576,"꼽힌다":13577,"경은":13578,"사례가":13579,"경험이":13580,"별로는":13581,"양주":13582,"포트":13583,"억원이":13584,"교수가":13585,"일환":13586,"이른다":13587,"골목":13588,"5년간":13589,"거짓":13590,"이루어":13591,"적절한":13592,"도약":13593,"향한":13594,"물량":13595,"입어":13596,"용차":13597,"환율":13598,"줘야":13599,"신체":13600,"제시했다":13601,"었는데":13602,"엔진":13603,"후보의":13604,"먹을":13605,"음성":13606,"계절":13607,"행위를":13608,"매출이":13609,"시민들이":13610,"채무":13611,"치며":13612,"흘러":13613,"들어갔다":13614,"검찰에":13615,"광주시":13616,"태국":13617,"번째로":13618,"만날":13619,"박스":13620,"음료":13621,"구분":13622,"노동자":13623,"티켓":13624,"소셜":13625,"내놓은":13626,"4명":13627,"휴가":13628,"\"(":13629,"타당":13630,"늘려":13631,"권은":13632,"리더십":13633,"극장":13634,"국민이":13635,"매니":13636,"청주":13637,"탈락":13638,"포스트":13639,"원래":13640,"2015":13641,"북한은":13642,"의존":13643,"이유를":13644,"말씀":13645,"보건복지":13646,"es":13647,"열렸다":13648,"회사는":13649,"박지":13650,"얘기다":13651,"LS":13652,"시중":13653,"대형마트":13654,"경매":13655,"파괴":13656,"공시":13657,"랭킹":13658,"주어":13659,"탄핵":13660,"is":13661,"실적을":13662,"el":13663,"적응":13664,"수준을":13665,"북미":13666,"서부":13667,"일로":13668,"?”":13669,"여의도":13670,"편집":13671,"현은":13672,"3분기":13673,"눈을":13674,"2014":13675,"높여":13676,"대학원":13677,"김연":13678,"깨끗":13679,"실종":13680,"IM":13681,"호의":13682,"들어간":13683,"권고":13684,"크루":13685,"다하겠다":13686,"신선":13687,"메리":13688,"확대해":13689,"입장이다":13690,"선진국":13691,"유형":13692,"참석해":13693,"리조트":13694,"플러":13695,"호를":13696,"라이브":13697,"방한":13698,"수성":13699,"조사한":13700,"시코":13701,"시설이":13702,"기간을":13703,"값이":13704,"치열한":13705,"고의":13706,"민주화":13707,"이뤄진":13708,"10대":13709,"말이다":13710,"건이":13711,"미치는":13712,"국산":13713,"불거":13714,"학기":13715,"충전":13716,"국정원":13717,"식의":13718,"그냥":13719,"무산":13720,"동영상":13721,"면에서":13722,"조합원":13723,"어난":13724,"조리":13725,"실장":13726,"1990":13727,"워싱턴":13728,"안의":13729,"좋지":13730,"코너":13731,"촛불":13732,"사랑의":13733,"착용":13734,"관세":13735,"수소":13736,"모은":13737,"민은":13738,"겨냥":13739,"유족":13740,"한의":13741,"디션":13742,"1500":13743,"2분기":13744,"비례":13745,"언어":13746,"과목":13747,"터미널":13748,"그만":13749,"am":13750,"일자리를":13751,"후속":13752,"본부장은":13753,"재능":13754,"기간이":13755,"매달":13756,"과장":13757,"빌딩":13758,"대상이":13759,"국민연금":13760,"진행했다":13761,"독특":13762,"선제":13763,"라이프":13764,"복잡":13765,"실장은":13766,"돈이":13767,"수단":13768,"예정인":13769,"소에서":13770,"공학":13771,"원유":13772,"안정적인":13773,"사업비":13774,"동강":13775,"마치고":13776,"짧은":13777,"민주당은":13778,"주체":13779,"거리가":13780,"정도의":13781,"행사에":13782,"내정":13783,"뿌리":13784,"정책에":13785,"마련해":13786,"모았다":13787,"여명의":13788,"타자":13789,"변화가":13790,"K리그":13791,"보유하고":13792,"5시":13793,"미국은":13794,"필리핀":13795,"대교":13796,"안전한":13797,"사업자":13798,"나아가":13799,"격려":13800,"지원할":13801,"생각해":13802,"제공할":13803,"고객이":13804,"일으키":13805,"기업과":13806,"클린":13807,"특화":13808,"수백":13809,"높았다":13810,"행사가":13811,"스님":13812,"있으나":13813,"신흥":13814,"모터":13815,"고정":13816,"시작해":13817,"식은":13818,"중계":13819,"방향으로":13820,"말해":13821,"프린":13822,"미래에":13823,"정무":13824,"해고":13825,"최초의":13826,"음주":13827,"개척":13828,"마디":13829,"김경":13830,"목적으로":13831,"잠시":13832,"그에":13833,"창립":13834,"수술을":13835,"줄어들":13836,"스에서":13837,"여서":13838,"측정":13839,"다녀":13840,"기대를":13841,"알게":13842,"적립":13843,"가시":13844,"환영":13845,"지침":13846,"진행되는":13847,"동계올림픽":13848,"담고":13849,"영화제":13850,"사람들":13851,"든지":13852,"찾을":13853,"자세한":13854,"73":13855,"지명":13856,"항목":13857,"LA":13858,"걸어":13859,"업체의":13860,"구상":13861,"넓은":13862,"분석한":13863,"탑재":13864,"늘어나":13865,"김치":13866,"상태에서":13867,"인공지능":13868,"이들을":13869,"버린":13870,"교섭":13871,"회와":13872,"가면":13873,"회관":13874,"국회의":13875,"담을":13876,"군을":13877,"앉아":13878,"한진":13879,"참여를":13880,"ed":13881,"없애":13882,"얻어":13883,"오르는":13884,"하라고":13885,"삼성전자는":13886,"현역":13887,"il":13888,"3시":13889,"예선":13890,"주에":13891,"악의":13892,"입시":13893,"9천":13894,"생각하는":13895,"발생할":13896,"아프":13897,"정수":13898,"국비":13899,"세는":13900,"단순히":13901,"광명":13902,"무선":13903,"더라":13904,"분노":13905,"아리":13906,"2012":13907,"송도":13908,"가며":13909,"재벌":13910,"이어지는":13911,"여성의":13912,"윤리":13913,"다짐":13914,"그때":13915,"기증":13916,"상관":13917,"회사를":13918,"보험료":13919,"벌써":13920,"영화를":13921,"강도":13922,"당국은":13923,"진상":13924,"강경":13925,"조만":13926,"집권":13927,"재개발":13928,"있었지만":13929,"드린다":13930,"영은":13931,"폭이":13932,"현직":13933,"문자":13934,"8만":13935,"경비":13936,"현상이":13937,"현장에":13938,"야외":13939,"부작용":13940,"역전":13941,"체계를":13942,"5명":13943,"등판":13944,"한국에서":13945,"타이틀":13946,"개로":13947,"세우":13948,"기관이":13949,"김기":13950,"담겨":13951,"성공했다":13952,"구나":13953,"내수":13954,"얻었다":13955,"유명한":13956,"양을":13957,"소요":13958,"드러냈다":13959,"였지만":13960,"색을":13961,"연이":13962,"규칙":13963,"점의":13964,"발전에":13965,"LG전":13966,"3위":13967,"검사를":13968,"측에":13969,"간편":13970,"시장과":13971,"소감을":13972,"부활":13973,"ol":13974,"전무":13975,"인용":13976,"진행할":13977,"했다가":13978,"듯이":13979,"세탁":13980,"본격화":13981,"밀어":13982,"분야에":13983,"최신":13984,"소상공":13985,"실정":13986,"청이":13987,"변동":13988,"이유가":13989,"유일한":13990,"공인":13991,"대통령을":13992,"공제":13993,"식물":13994,"중에서":13995,"발언을":13996,"10명":13997,"오페라":13998,"북구":13999,"위축":14000,"경우도":14001,"협동":14002,"가속":14003,"되기도":14004,"가이드":14005,"주재":14006,"이영":14007,"넣어":14008,"단축":14009,"압도":14010,"국가대표":14011,"카드를":14012,"공통":14013,"교실":14014,"전철":14015,"만원에":14016,"승점":14017,"하위":14018,"강좌":14019,"면제":14020,"부분을":14021,"71":14022,"방치":14023,"제품의":14024,"900":14025,"중순":14026,"살려":14027,"이수":14028,"전화를":14029,"기아차":14030,"유치원":14031,"무시":14032,"식에":14033,"경쟁을":14034,"한류":14035,"고문":14036,"네티":14037,"내다봤다":14038,"박한":14039,"해군":14040,"보좌":14041,"두는":14042,"부분이":14043,"조만간":14044,"납부":14045,"NA":14046,"김용":14047,"지시":14048,"지원하고":14049,"유예":14050,"정보통신":14051,"진학":14052,"책은":14053,"방송된":14054,"그럼":14055,"DP":14056,"우즈":14057,"쪽에":14058,"겠느냐":14059,"스턴":14060,"업체에":14061,"추적":14062,"즉시":14063,"의류":14064,"작곡":14065,"나마":14066,"갖추고":14067,"유망":14068,"이어지고":14069,"사정":14070,"할까":14071,"일어나":14072,"토록":14073,"무대를":14074,"진출을":14075,"홀에서":14076,"꼽았다":14077,"기름":14078,"대회에":14079,"무소속":14080,"운항":14081,"광양":14082,"널리":14083,"터뜨":14084,"올리는":14085,"대문":14086,"철저히":14087,"수지":14088,"철학":14089,"늘어날":14090,"플래":14091,"을까":14092,"총리가":14093,"끌었다":14094,"썼다":14095,"인천시":14096,"계에":14097,"문화체육":14098,"일주일":14099,"지원이":14100,"분명히":14101,"멘토":14102,"쓰레기":14103,"내외":14104,"트가":14105,"대외":14106,"도움":14107,"모르는":14108,"법으로":14109,"깜짝":14110,"보이며":14111,"2010":14112,"경제가":14113,"강행":14114,"발효":14115,"공산":14116,"그간":14117,"FI":14118,"았지만":14119,"극대화":14120,"앞선":14121,"기까지":14122,"자연스럽게":14123,"원활":14124,"발주":14125,"의정부":14126,"관내":14127,"심사를":14128,"게다가":14129,"존중":14130,"한은":14131,"소의":14132,"2016":14133,"끝까지":14134,"리얼":14135,"구리":14136,"코스닥":14137,"간접":14138,"강화를":14139,"이번이":14140,"집회":14141,"발달":14142,"위생":14143,"2루":14144,"높게":14145,"얻은":14146,"도시로":14147,"육아":14148,"준비를":14149,"필요하다는":14150,"당내":14151,"받아야":14152,"검토하고":14153,"들로부터":14154,"섭취":14155,"멕시코":14156,"끊임":14157,"과천":14158,"량의":14159,"중고":14160,"광장":14161,"공정거래":14162,"소개했다":14163,"2001년":14164,"보면서":14165,"풀이된다":14166,"협상을":14167,"스타그램":14168,"배달":14169,"차원의":14170,"추락":14171,"세무":14172,"지원센터":14173,"드가":14174,"마쳤다":14175,"지닌":14176,"오피스텔":14177,"측근":14178,"결과는":14179,"과정에":14180,"실력":14181,"방송을":14182,"지대":14183,"지법":14184,"공개된":14185,"오지":14186,"층의":14187,"사회에":14188,"기록하며":14189,"한테":14190,"둘째":14191,"진정한":14192,"주목된다":14193,"보조금":14194,"성한":14195,"무릎":14196,"발매":14197,"건에":14198,"퇴근":14199,"이라면서":14200,"공익":14201,"운영을":14202,"경상":14203,"위안부":14204,"시나":14205,"담배":14206,"수험":14207,"상당한":14208,"해제":14209,"제주도":14210,"김민":14211,"주인":14212,"분위기가":14213,"보가":14214,"없지만":14215,"일시":14216,"들려":14217,"한해":14218,"서명":14219,"잡을":14220,"주민들은":14221,"여행을":14222,"사전에":14223,"이용하는":14224,"겠습니다":14225,"육상":14226,"치가":14227,"간호":14228,"작가는":14229,"스크린":14230,"홈쇼핑":14231,"대표이사":14232,"전파":14233,"그래도":14234,"의약품":14235,"장르":14236,"범위":14237,"재활":14238,"추첨":14239,"정도다":14240,"간담회를":14241,"협의를":14242,"한데":14243,"해질":14244,"국민의당":14245,"희망을":14246,"체크":14247,"데미":14248,"속도를":14249,"증명":14250,"전교":14251,"기업들의":14252,"HD":14253,"군수":14254,"콘텐츠를":14255,"아직도":14256,"수여":14257,"호텔에서":14258,"캐피":14259,"병행":14260,"신분":14261,"잘못된":14262,"사용해":14263,"불리":14264,"사회를":14265,"감소했다":14266,"고객의":14267,"이곳":14268,"개가":14269,"회장을":14270,"뚜렷":14271,"사립":14272,"인기가":14273,"조용":14274,"의혹이":14275,"피의":14276,"자도":14277,"아닐":14278,"서의":14279,"OE":14280,"A씨는":14281,"어려울":14282,"벌금":14283,"대표를":14284,"있음을":14285,"슬로":14286,"네티즌":14287,"2017":14288,"98":14289,"공장을":14290,"180":14291,"ro":14292,"가요":14293,"산은":14294,"부각":14295,"돼지":14296,"업체들이":14297,"마련됐다":14298,"사이에서":14299,"신축":14300,"비율은":14301,"트의":14302,"도발":14303,"속도":14304,"실로":14305,"황금":14306,"초대":14307,"기조":14308,"레일":14309,"영광":14310,"4시":14311,"석이":14312,"업계의":14313,"다섯":14314,"본인":14315,"높아지고":14316,"중부":14317,"금융감독":14318,"연패":14319,"위원장을":14320,"경제의":14321,"연방":14322,"밀려":14323,"복을":14324,"상으로":14325,"특유의":14326,"르지":14327,"받기":14328,"얻을":14329,"넘겨":14330,"1980":14331,"플라":14332,"들과의":14333,"이대":14334,"충족":14335,"조사에":14336,"IB":14337,"리티":14338,"유를":14339,"근육":14340,"해설":14341,"2013":14342,"대상을":14343,"증진":14344,"전망이":14345,"출연해":14346,"심화":14347,"즐거":14348,"시공":14349,"스테이":14350,"지다":14351,"상한":14352,"기재":14353,"튜브":14354,"풍부한":14355,"기술이":14356,"바둑":14357,"불과하다":14358,"모델을":14359,"본부는":14360,"하였다":14361,"치의":14362,"해지고":14363,"잠실":14364,"벌였다":14365,"야간":14366,"우러":14367,"제고":14368,"싶어":14369,"결코":14370,"노조는":14371,"내며":14372,"3회":14373,"미칠":14374,"해당하는":14375,"건너":14376,"경이":14377,"보전":14378,"렸던":14379,"엔터테인먼트":14380,"불황":14381,"낮추":14382,"5억":14383,"목소리":14384,"실질적인":14385,"민생":14386,"과세":14387,"의원을":14388,"운송":14389,"50여":14390,"ent":14391,"5G":14392,"선수들의":14393,"LPGA":14394,"사례를":14395,"경쟁이":14396,"소리를":14397,"건설은":14398,"kg":14399,"마시":14400,"서에":14401,"당했다":14402,"연한":14403,"일고":14404,"소음":14405,"통행":14406,"느낀":14407,"소시":14408,"피고":14409,"다행":14410,"바지":14411,"낙동강":14412,"진행하는":14413,"거뒀다":14414,"동맹":14415,"“‘":14416,"크라":14417,"LG전자":14418,"저렴한":14419,"미군":14420,"중반":14421,"1일부터":14422,"자이너":14423,"일관":14424,"학교에":14425,"DI":14426,"10분":14427,"미국에서":14428,"본부장":14429,"신은":14430,"스럽다":14431,"86":14432,"시간은":14433,"상승했다":14434,"요청했다":14435,"심장":14436,"국방부":14437,"ch":14438,"모금":14439,"지리":14440,"형이":14441,"아무리":14442,"지향":14443,"스토리":14444,"장착":14445,"태평양":14446,"한때":14447,"엑스포":14448,"머리를":14449,"화하는":14450,"대출을":14451,"뷰티":14452,"인류":14453,"언더파":14454,"당분간":14455,"임기":14456,"철회":14457,"지난주":14458,"제휴":14459,"받아들이":14460,"배가":14461,"맞서":14462,"자발":14463,"물어":14464,"스튜":14465,"민주통합":14466,"독도":14467,"확대를":14468,"자회사":14469,"적용해":14470,"러브":14471,"주유":14472,"내비":14473,"나왔":14474,"양의":14475,"곡을":14476,"명에게":14477,"리오":14478,"극단":14479,"별도로":14480,"비와":14481,"흥행":14482,"정신을":14483,"화한":14484,"아이돌":14485,"기반을":14486,"비디오":14487,"CCTV":14488,"화이트":14489,"달했다":14490,"애니":14491,"법상":14492,"전으로":14493,"사내":14494,"새해":14495,"죽음":14496,"공간으로":14497,"나가겠다":14498,"셔널":14499,"개인의":14500,"디자이너":14501,"PS":14502,"동향":14503,"가서":14504,"냉장":14505,"원료":14506,"업체는":14507,"조사에서":14508,"소프트웨어":14509,"부산시":14510,"말라":14511,"맥주":14512,"결론":14513,"규모를":14514,"능력이":14515,"195":14516,"진주":14517,"대회는":14518,"손흥":14519,"점수":14520,"그룹이":14521,"너스":14522,"지점":14523,"힘입어":14524,"터키":14525,"차량을":14526,"음식을":14527,"커뮤니티":14528,"또다시":14529,"된다면":14530,"등산":14531,"마라톤":14532,"누군":14533,"가해":14534,"감안하면":14535,"사장이":14536,"식사":14537,"정작":14538,"인턴":14539,"매월":14540,"이뤄질":14541,"조각":14542,"남구":14543,"분석이다":14544,"이유다":14545,"느낌을":14546,"독특한":14547,"압수수":14548,"건강보험":14549,"비용이":14550,"전후":14551,"제출한":14552,"아끼":14553,"내년부터":14554,"유일하게":14555,"끼리":14556,"홀로":14557,"저가":14558,"트레이":14559,"됨에":14560,"목포":14561,"상용":14562,"비교적":14563,"펼치고":14564,"위원회의":14565,"여겨":14566,"재현":14567,"충분한":14568,"줄여":14569,"완전":14570,"속한":14571,"3조":14572,"앞장서":14573,"비타":14574,"동북":14575,"선보인":14576,"포함된":14577,"사찰":14578,"이슬":14579,"일하는":14580,"솔루션":14581,"귀국":14582,"개성공":14583,"시마":14584,"학생들에게":14585,"파티":14586,"판에":14587,"동시":14588,"이뤄졌다":14589,"줄어든":14590,"개장":14591,"권역":14592,"시작됐다":14593,"4억":14594,"20만":14595,"갈등을":14596,"학교를":14597,"휴대전화":14598,"4분기":14599,"에게도":14600,"출근":14601,"50만":14602,"높이기":14603,"더블":14604,"말하는":14605,"모의":14606,"직전":14607,"걸음":14608,"정책이":14609,"분당":14610,"게이":14611,"들어선":14612,"마르":14613,"세계에서":14614,"감면":14615,"신라":14616,"웃음":14617,"현대중공업":14618,"나섰":14619,"지원한다":14620,"나서고":14621,"천안함":14622,"as":14623,"미안":14624,"추진해":14625,"무성":14626,"발생했다":14627,"파는":14628,"40대":14629,"입사":14630,"자아":14631,"하느냐":14632,"긍정적인":14633,"재가":14634,"물은":14635,"최순":14636,"감각":14637,"주가가":14638,"이미지":14639,"시즌을":14640,"영장":14641,"지적이다":14642,"한우":14643,"차례에":14644,"김광":14645,"묻는":14646,"히고":14647,"메이크":14648,"화합":14649,"식에서":14650,"이병":14651,"적정":14652,"AR":14653,"이성":14654,"탈출":14655,"음악을":14656,"치기":14657,"메이저리그":14658,"무를":14659,"대표와":14660,"헬스":14661,"나타나":14662,"흥미":14663,"철저한":14664,"뒤집":14665,"파주":14666,"셔츠":14667,"경북도":14668,"국가의":14669,"전체의":14670,"서울시는":14671,"학년도":14672,"가에":14673,"수한":14674,"인상을":14675,"강화하고":14676,"걸고":14677,"아이를":14678,"매도":14679,"알리는":14680,"원주":14681,"나아":14682,"마스터":14683,"자영업":14684,"관찰":14685,"아카데미":14686,"권리":14687,"사고로":14688,"명칭":14689,"중개":14690,"벌인":14691,"MOU":14692,"2011":14693,"마련한":14694,"도어":14695,"무장":14696,"종로":14697,"개최했다":14698,"화면":14699,"방침을":14700,"….":14701,"양도":14702,"무죄":14703,"주차장":14704,"리스크":14705,"말한":14706,"대목":14707,"프라이":14708,"부모님":14709,"아무런":14710,"새마을":14711,"체인":14712,"200여":14713,"바르":14714,"가족이":14715,"탄을":14716,"달라는":14717,"시대에":14718,"오일":14719,"즐기는":14720,"방법으로":14721,"87":14722,"어른":14723,"장인":14724,"한일":14725,"상당의":14726,"자산운용":14727,"무더":14728,"골드":14729,"넘치는":14730,"빌려":14731,"운전자":14732,"하라는":14733,"지낸":14734,"이게":14735,"참여했다":14736,"쉬운":14737,"이끄는":14738,"직장인":14739,"계획이":14740,"창단":14741,"스타트업":14742,"불을":14743,"매출액":14744,"함과":14745,"이사는":14746,"이전에":14747,"베르":14748,"지지를":14749,"구조를":14750,"멀티":14751,"ICT":14752,"방문한":14753,"두려":14754,"터널":14755,"세계적":14756,"이상으로":14757,"논문":14758,"가중":14759,"현재의":14760,"국악":14761,"화하고":14762,"변화에":14763,"이혼":14764,"중독":14765,"세계적으로":14766,"전시회":14767,"자사":14768,"적한":14769,"꼽히는":14770,"꿈꾸":14771,"학생을":14772,"SC":14773,"인적":14774,"문화체육관광":14775,"에너":14776,"알리":14777,"횡령":14778,"나라는":14779,"SU":14780,"금메달을":14781,"상주":14782,"스트레":14783,"살해":14784,"브로":14785,"생겨":14786,"미술관":14787,"작가의":14788,"인간의":14789,"일본은":14790,"상당히":14791,"세우고":14792,"와서":14793,"데도":14794,"임상":14795,"토크":14796,"계는":14797,"수준에":14798,"삼아":14799,"입원":14800,"되었":14801,"가격에":14802,"패턴":14803,"사용한":14804,"점수를":14805,"즈를":14806,"패널":14807,"신공항":14808,"편이":14809,"주얼":14810,"un":14811,"인력을":14812,"여러분":14813,"의원과":14814,"않을까":14815,"용의":14816,"밀한":14817,"2시간":14818,"오토":14819,"사업과":14820,"전부":14821,"청사":14822,"레저":14823,"태극":14824,"저소득층":14825,"엄청난":14826,"세의":14827,"모델로":14828,"주장이":14829,"배터리":14830,"광역시":14831,"방에":14832,"공고":14833,"경우에는":14834,"가능해":14835,"고객을":14836,"관중":14837,"서해":14838,"직원이":14839,"일환으로":14840,"때가":14841,"화문":14842,"산업을":14843,"제안했다":14844,"도서":14845,"4회":14846,"상하이":14847,"가리":14848,"벨트":14849,"노동조합":14850,"성공한":14851,"외면":14852,"관리에":14853,"모으고":14854,"민이":14855,"성도":14856,"빅데이터":14857,"스웨":14858,"접목":14859,"화폐":14860,"논란을":14861,"좌우":14862,"주부":14863,"없었던":14864,"서울의":14865,"나란히":14866,"지목":14867,"성명":14868,"졌던":14869,"1심":14870,"학력":14871,"비교해":14872,"매력을":14873,"?\"":14874,"백악":14875,"수천":14876,"중에는":14877,"일간":14878,"포스":14879,"30만":14880,"절실":14881,"보여준다":14882,"불구속":14883,"왜곡":14884,"들인":14885,"지금도":14886,"마스":14887,"방과":14888,"변신":14889,"여대":14890,"컸다":14891,"고객에게":14892,"시키기":14893,"이로써":14894,"차별화된":14895,"깊이":14896,"떨어지는":14897,"대상은":14898,"법과":14899,"부패":14900,"상정":14901,"엘리":14902,"붕괴":14903,"애초":14904,"졌지만":14905,"군과":14906,"예산이":14907,"몸에":14908,"정동":14909,"위원회에":14910,"맡았다":14911,"좋아하는":14912,"인천공항":14913,"전역":14914,"해마다":14915,"주장을":14916,"수강":14917,"탈북":14918,"4강":14919,"잡는":14920,"크림":14921,"어우러":14922,"실적이":14923,"이르면":14924,"올해도":14925,"분석이":14926,"나서는":14927,"신종":14928,"감과":14929,"받침":14930,"숙한":14931,"국무총리":14932,"시인":14933,"출간":14934,"안성":14935,"연세대":14936,"바람에":14937,"웃음을":14938,"인민":14939,"기능이":14940,"투자가":14941,"KTX":14942,"연의":14943,"아이가":14944,"도덕":14945,"불확실":14946,"업체를":14947,"신중":14948,"확인했다":14949,"감상":14950,"원이다":14951,"자라":14952,"대비해":14953,"고사":14954,"비중을":14955,"스프":14956,"비중은":14957,"형태의":14958,"마주":14959,"오르고":14960,"소와":14961,"힐링":14962,"준비하고":14963,"9만":14964,"렸고":14965,"아시안게임":14966,"접어":14967,"별도의":14968,"와인":14969,"기성":14970,"모비스":14971,"증시":14972,"차관":14973,"높일":14974,"승부를":14975,"뒤에":14976,"열정":14977,"경로":14978,"접속":14979,"헤어":14980,"KBO":14981,"om":14982,"산이":14983,"위원장의":14984,"것인지":14985,"손실":14986,"갈아":14987,"꼼꼼":14988,"토로":14989,"83":14990,"농림":14991,"파로":14992,"교육과":14993,"교육의":14994,"중국과":14995,"EC":14996,"찾고":14997,"타로":14998,"문화의":14999,"검은":15000,"아티":15001,"펼쳤다":15002,"연합회":15003,"경우는":15004,"”,":15005,"다채":15006,"캠퍼스":15007,"선보일":15008,"다루":15009,"유행":15010,"학생은":15011,"취급":15012,"특강":15013,"사각":15014,"직원들이":15015,"모니터링":15016,"대학의":15017,"수험생":15018,"82":15019,"친화":15020,"구성해":15021,"기한":15022,"상태를":15023,"클리":15024,"첫날":15025,"tv":15026,"방이":15027,"트라":15028,"이사장은":15029,"저자는":15030,"LTE":15031,"무조건":15032,"환자가":15033,"다니는":15034,"전에는":15035,"국은":15036,"급등":15037,"대량":15038,"5대":15039,"군산":15040,"포지":15041,"날씨":15042,"보고서를":15043,"손에":15044,"토토":15045,"소중한":15046,"내놨다":15047,"답을":15048,"96":15049,"시대의":15050,"이번에는":15051,"주목을":15052,"않기":15053,"양은":15054,"사건의":15055,"연구를":15056,"개그":15057,"물론이고":15058,"그들의":15059,"청에":15060,"현대자동차":15061,"경과":15062,"의왕":15063,"사회가":15064,"이은":15065,"50대":15066,"산학":15067,"동남":15068,"신용카드":15069,"운영에":15070,"소한":15071,"스테":15072,"순이익":15073,"체가":15074,"아니면":15075,"연은":15076,"실점":15077,"발간":15078,"졌다는":15079,"모른다":15080,"배정":15081,"이노":15082,"마자":15083,"일선":15084,"대대":15085,"지원에":15086,"나타냈다":15087,"인구가":15088,"보행":15089,"삼성은":15090,"성형":15091,"진과":15092,"스탠":15093,"마침":15094,"들어가는":15095,"명한":15096,"성실":15097,"팬들의":15098,"전달했다":15099,"통산":15100,"개정안":15101,"권과":15102,"불교":15103,"심지어":15104,"3배":15105,"iv":15106,"이스라":15107,"여성이":15108,"되길":15109,"네덜":15110,"구제역":15111,"대해서":15112,"임대주택":15113,"설치된":15114,"말에":15115,"반려":15116,"않았지만":15117,"ht":15118,"위주로":15119,"참사":15120,"부로":15121,"호응을":15122,"가질":15123,"인원":15124,"아니었다":15125,"하기는":15126,"라인을":15127,"인테":15128,"거점":15129,"요양":15130,"고생":15131,"초점을":15132,"교원":15133,"국적":15134,"살리기":15135,"생생":15136,"후에":15137,"97":15138,"보여주":15139,"면허":15140,"밖에도":15141,"하이브리":15142,"때보다":15143,"거친":15144,"단장":15145,"이어진":15146,"분할":15147,"엔지":15148,"제품이":15149,"챔피언십":15150,"문화재단":15151,"이스라엘":15152,"나간":15153,"활동이":15154,"당첨":15155,"스트라":15156,"흐름을":15157,"법무부":15158,"누리꾼":15159,"옷을":15160,"리포":15161,"위와":15162,"남겨":15163,"안전을":15164,"출신인":15165,"PO":15166,"방안도":15167,"느라":15168,"상과":15169,"작동":15170,"중기":15171,"치로":15172,"객관":15173,"지원해":15174,"입지":15175,"서울에서":15176,"상태로":15177,"실시하고":15178,"작전":15179,"솔로":15180,"열을":15181,"통을":15182,"널드":15183,"성사":15184,"트와":15185,"수면":15186,"살을":15187,"ig":15188,"되지만":15189,"00만":15190,"안타까":15191,"상시":15192,"검찰의":15193,"본선":15194,"거래를":15195,"이때":15196,"이건":15197,"있으니":15198,"의학":15199,"금융위기":15200,"출신의":15201,"왼쪽":15202,"번의":15203,"메모":15204,"베이스":15205,"소규모":15206,"오면":15207,"전국에서":15208,"다이어":15209,"지적도":15210,"스페셜":15211,"엄격":15212,"성공적으로":15213,"올릴":15214,"설을":15215,"조건을":15216,"비싼":15217,"진실":15218,"매출은":15219,"않다는":15220,"AT":15221,"맞지":15222,"기여할":15223,"국에":15224,"지은":15225,"회수":15226,"걸려":15227,"특혜":15228,"않아도":15229,"동화":15230,"전수":15231,"진행한":15232,"영향으로":15233,"선관":15234,"동서":15235,"초래":15236,"한창":15237,"많고":15238,"협업":15239,"주민의":15240,"요구를":15241,"매김":15242,"0으로":15243,"정책의":15244,"AS":15245,"모델링":15246,"클러":15247,"항소":15248,"해요":15249,"1시":15250,"리게":15251,"조심":15252,"북한에":15253,"해가":15254,"달러를":15255,"싱글":15256,"도박":15257,"에코":15258,"콘셉":15259,"1년간":15260,"119":15261,"최강":15262,"캠핑":15263,"명문":15264,"140":15265,"지역구":15266,"방학":15267,"이동통신":15268,"이론":15269,"의원들이":15270,"모범":15271,"자칫":15272,"금리가":15273,"뒤늦게":15274,"범행":15275,"본사":15276,"점유율":15277,"당국이":15278,"길에":15279,"고용노동":15280,"만은":15281,"열차":15282,"제시한":15283,"면역":15284,"유튜브":15285,"국어":15286,"출동":15287,"40여":15288,"불이":15289,"실용":15290,"괜찮":15291,"교회":15292,"미는":15293,"학생들을":15294,"3층":15295,"것인가":15296,"위성":15297,"투자자":15298,"수업을":15299,"다큐":15300,"성분":15301,"안으로":15302,"못한다":15303,"기쁘":15304,"당원":15305,"상향":15306,"대립":15307,"병원에서":15308,"병을":15309,"신뢰를":15310,"매립":15311,"1억원":15312,"항공사":15313,"진행되고":15314,"세계를":15315,"바람이":15316,"판매를":15317,"패배":15318,"경제부":15319,"국내에":15320,"매출을":15321,"악한":15322,"마음으로":15323,"홍준":15324,"유관":15325,"사원":15326,"원천":15327,"광화문":15328,"속히":15329,"일산":15330,"아시아나":15331,"선포":15332,"장례":15333,"보복":15334,"200만":15335,"서면":15336,"과도한":15337,"갈등이":15338,"도급":15339,"타는":15340,"대우조선":15341,"수습":15342,"민주노총":15343,"본회의":15344,"않지만":15345,"의장은":15346,"펼쳐진다":15347,"성명을":15348,"없도록":15349,"관심과":15350,"6명":15351,"돕는":15352,"앞세워":15353,"판매하는":15354,"제외하고":15355,"체결했다":15356,"가깝":15357,"고시":15358,"만만":15359,"물과":15360,"청렴":15361,"동작":15362,"어제":15363,"경기장":15364,"선수는":15365,"500만":15366,"출마를":15367,"반대로":15368,"경영자":15369,"리면서":15370,"규제를":15371,"박영":15372,"받아들여":15373,"않는다는":15374,"골든":15375,"부문에서":15376,"주변에":15377,"별도":15378,"해지":15379,"업그":15380,"오랫":15381,"진행될":15382,"이산":15383,"총회":15384,"끈다":15385,"보내는":15386,"올해부터":15387,"얘기를":15388,"전국의":15389,"정유":15390,"충실":15391,"요인":15392,"협회는":15393,"미가":15394,"박성":15395,"중점":15396,"당에서":15397,"시기에":15398,"추경":15399,"사무소":15400,"가볍":15401,"성폭력":15402,"치킨":15403,"사격":15404,"사태가":15405,"게재":15406,"로도":15407,"열릴":15408,"평가가":15409,"말은":15410,"북핵":15411,"교육청은":15412,"겪는":15413,"탄탄":15414,"골프장":15415,"측면에서":15416,"책이":15417,"퍼포":15418,"1번":15419,"늘어났다":15420,"얼굴을":15421,"김병":15422,"전성":15423,"건은":15424,"집으로":15425,"자유롭게":15426,"이뤄지지":15427,"간판":15428,"바뀐":15429,"엇갈":15430,"경제를":15431,"BMW":15432,"가족과":15433,"우울":15434,"구체적으로":15435,"최순실":15436,"추산":15437,"만든다":15438,"분산":15439,"출자":15440,"담았다":15441,"증가하고":15442,"테이너":15443,"됐을":15444,"올바른":15445,"입건":15446,"프로모":15447,"단순한":15448,"영웅":15449,"올리고":15450,"숨진":15451,"건설이":15452,"부회장은":15453,"저우":15454,"포함돼":15455,"사건에":15456,"호기":15457,"재직":15458,"크고":15459,"마지막으로":15460,"이룬":15461,"체제를":15462,"투기":15463,"화제":15464,"연승":15465,"않았던":15466,"국회에":15467,"인근에":15468,"조의":15469,"아닌가":15470,"과일":15471,"장수":15472,"자리매김":15473,"플레이오프":15474,"휴식":15475,"조항":15476,"선거구":15477,"대부":15478,"업계는":15479,"메르스":15480,"장난":15481,"편이다":15482,"2009":15483,"용지":15484,"이겨":15485,"법의":15486,"오랫동안":15487,"희는":15488,"무관":15489,"간담회":15490,"밸리":15491,"자재":15492,"US":15493,"겁게":15494,"용이":15495,"정상화":15496,"1999년":15497,"1998년":15498,"즈는":15499,"사후":15500,"인지도":15501,"금으로":15502,"착한":15503,"운영한다":15504,"공영":15505,"전직":15506,"일부를":15507,"협동조합":15508,"보강":15509,"배송":15510,"교육부":15511,"청탁":15512,"소속사":15513,"전용면적":15514,"새정치민주":15515,"노력이":15516,"들에게는":15517,"백을":15518,"거두":15519,"액의":15520,"이씨는":15521,"뜻이다":15522,"서서":15523,"고스":15524,"행태":15525,"투입해":15526,"에이스":15527,"오산":15528,"돌이":15529,"이례":15530,"스쿨":15531,"벌어진":15532,"갖게":15533,"계획에":15534,"퍼포먼":15535,"이야기가":15536,"가구가":15537,"기소된":15538,"도에서":15539,"일본이":15540,"참가한":15541,"음반":15542,"전월":15543,"노동당":15544,"되어야":15545,"되는데":15546,"영장을":15547,"기간은":15548,"늘어나는":15549,"받으며":15550,"적자":15551,"갖는":15552,"소수":15553,"층이":15554,"이하의":15555,"리서":15556,"실력을":15557,"아나":15558,"그렇지":15559,"압수수색":15560,"밀양":15561,"안고":15562,"없기":15563,"ation":15564,"병원에":15565,"어는":15566,"하남":15567,"194":15568,"2년간":15569,"환경이":15570,"가기":15571,"있을지":15572,"제품으로":15573,"가능성은":15574,"조세":15575,"24시간":15576,"GDP":15577,"수확":15578,"부분은":15579,"무사":15580,"공개한":15581,"동아리":15582,"맞았다":15583,"인삼":15584,"지난해보다":15585,"지금의":15586,"마일":15587,"정황":15588,"혁신도시":15589,"뤘다":15590,"기관에":15591,"근처":15592,"논의를":15593,"오프라인":15594,"감은":15595,"나노":15596,"붙여":15597,"유지하고":15598,"는가":15599,"박주":15600,"훌륭":15601,"뇌물":15602,"타당성":15603,"감동":15604,"그럴":15605,"물려":15606,"인건":15607,"장성":15608,"수산물":15609,"상승세를":15610,"속으로":15611,"이적":15612,"의원들은":15613,"개발해":15614,"올해로":15615,"로맨":15616,"끄러":15617,"만났다":15618,"LG유":15619,"판단했다":15620,"에서부터":15621,"병원을":15622,"ay":15623,"보드":15624,"인문":15625,"건강을":15626,"신동":15627,"신형":15628,"5회":15629,"곳곳에":15630,"사무실":15631,"제이":15632,"허브":15633,"무대에서":15634,"다저":15635,"폐기물":15636,"걸린":15637,"강남구":15638,"내셔널":15639,"미드":15640,"시작한다":15641,"편을":15642,"폭염":15643,"핵실험":15644,"중국에":15645,"스케":15646,"짓는":15647,"청원":15648,"쿼터":15649,"눈이":15650,"역사적":15651,"권도":15652,"시흥":15653,"필요하다고":15654,"대표적":15655,"1대":15656,"OS":15657,"선거를":15658,"해결을":15659,"도모":15660,"잇는":15661,"홈런을":15662,"밝혔":15663,"가려":15664,"시민이":15665,"네덜란드":15666,"리모델링":15667,"소장은":15668,"하이브리드":15669,"액션":15670,"커플":15671,"대회가":15672,"오케":15673,"흡수":15674,"오로":15675,"정도가":15676,"줄이고":15677,"체감":15678,"1위에":15679,"억제":15680,"표창":15681,"추신":15682,"회의실에서":15683,"신문은":15684,"지수는":15685,"요구하고":15686,"바람직":15687,"MS":15688,"발레":15689,"일찍":15690,"설치해":15691,"제어":15692,"로의":15693,"패러":15694,"강요":15695,"조국":15696,"돕기":15697,"없게":15698,"요소":15699,"여기서":15700,"목숨을":15701,"피를":15702,"한달":15703,"함유":15704,"드론":15705,"수질":15706,"만기":15707,"당연히":15708,"최악의":15709,"하락했다":15710,"그랜드":15711,"금액은":15712,"엔지니어":15713,"뒷받침":15714,"빛을":15715,"합작":15716,"농어촌":15717,"일도":15718,"코드":15719,"변호사는":15720,"관할":15721,"김승":15722,"학생의":15723,"송파":15724,"장려":15725,"세미나":15726,"세제":15727,"배구":15728,"증언":15729,"위험이":15730,"관행":15731,"실습":15732,"특위":15733,"한양":15734,"지역이":15735,"제품에":15736,"그럼에도":15737,"문화가":15738,"한마디":15739,"찾아가는":15740,"력은":15741,"빠졌다":15742,"선보이는":15743,"말레이":15744,"석은":15745,"콜라":15746,"지부":15747,"프랜":15748,"화제를":15749,"경찰서는":15750,"손으로":15751,"나오지":15752,"한글":15753,"방안이":15754,"맞춘":15755,"지도자":15756,"수익률":15757,"국토해양":15758,"패키지":15759,"스웨덴":15760,"버디":15761,"판결을":15762,"게임을":15763,"비치":15764,"날이":15765,"구직":15766,"청산":15767,"스위스":15768,"줄일":15769,"가벼":15770,"유연":15771,"장식":15772,"상처":15773,"원화":15774,"2로":15775,"여유":15776,"20분":15777,"행정안전":15778,"면세점":15779,"나쁜":15780,"시리아":15781,"보여준":15782,"제기됐다":15783,"탐방":15784,"핸드":15785,"소매":15786,"아니고":15787,"감독을":15788,"자국":15789,"----":15790,"르노":15791,"자립":15792,"키우":15793,"폭탄":15794,"생기":15795,"시기를":15796,"다룬":15797,"만하다":15798,"댓글":15799,"고려대":15800,"진해":15801,"정확히":15802,"여명":15803,"선거에서":15804,"In":15805,"히트":15806,"새정치민주연합":15807,"동호":15808,"공간이":15809,"수목":15810,"유승":15811,"단말":15812,"자부":15813,"1997년":15814,"기쁨":15815,"홈페이":15816,"치면":15817,"3분의":15818,"수당":15819,"시선을":15820,"수상했다":15821,"도널드":15822,"믿고":15823,"줄이는":15824,"색깔":15825,"시험을":15826,"수령":15827,"학교에서":15828,"해체":15829,"허가를":15830,"하지는":15831,"끊임없이":15832,"전격":15833,"190":15834,"주한":15835,"현실을":15836,"물었다":15837,"미래에셋":15838,"회사에":15839,"하는지":15840,"도시재생":15841,"만들어진":15842,"조금씩":15843,"삭감":15844,"느끼는":15845,"민정":15846,"치아":15847,"겨레":15848,"박원":15849,"공기업":15850,"냄새":15851,"등급을":15852,"느꼈":15853,"번역":15854,"주식을":15855,"야생":15856,"온실":15857,"줄을":15858,"하기에":15859,"시청률":15860,"망이":15861,"교육과정":15862,"12개":15863,"부분에":15864,"프로그램은":15865,"문제의":15866,"로가":15867,"것이고":15868,"대부분이":15869,"기획재정부":15870,"연히":15871,"합쳐":15872,"해지는":15873,"예정된":15874,"확보를":15875,"과태":15876,"내년도":15877,"유동":15878,"외국어":15879,"갤러리":15880,"G20":15881,"해준다":15882,"맛이":15883,"잡기":15884,"마찬가지로":15885,"TO":15886,"규명":15887,"밀리":15888,"실효":15889,"작업이":15890,"학생부":15891,"공주":15892,"경찰의":15893,"대륙":15894,"사들의":15895,"아이들의":15896,"스튜디오":15897,"선으로":15898,"치면서":15899,"비의":15900,"방법은":15901,"청정":15902,"잉글":15903,"확대할":15904,"이념":15905,"중국에서":15906,"경의":15907,"표정":15908,"데는":15909,"임신":15910,"금융투자":15911,"맞고":15912,"입점":15913,"이름으로":15914,"추행":15915,"만화":15916,"인사청문":15917,"오른쪽":15918,"문제와":15919,"모습으로":15920,"동행":15921,"여는":15922,"전액":15923,"군수는":15924,"브랜드를":15925,"완벽한":15926,"배포":15927,"최우선":15928,"특성화":15929,"이슬람":15930,"신고를":15931,"가짜":15932,"센트":15933,"마운드":15934,"통화에서":15935,"기관과":15936,"반기에":15937,"3학년":15938,"채를":15939,"교통사고":15940,"크루즈":15941,"사들은":15942,"했어요":15943,"광복":15944,"선착":15945,"체납":15946,"마음에":15947,"고개를":15948,"반대하는":15949,"판매한다":15950,"노래를":15951,"검거":15952,"댄스":15953,"2부":15954,"가평":15955,"컨테이너":15956,"평등":15957,"160":15958,"외교부":15959,"3루":15960,"차지한":15961,"방역":15962,"레이션":15963,"양식":15964,"사람들을":15965,"7명":15966,"실리":15967,"했는지":15968,"일본에서":15969,"향상을":15970,"팀에":15971,"우려를":15972,"5분":15973,"무효":15974,"ad":15975,"알파":15976,"도중":15977,"연기를":15978,"허리":15979,"받아들":15980,"사유":15981,"축구연맹":15982,"과잉":15983,"확대하고":15984,"긴다":15985,"부양":15986,"치유":15987,"강정":15988,"있었고":15989,"거둔":15990,"형제":15991,"환자의":15992,"질문을":15993,"예상되는":15994,"시술":15995,"조류":15996,"군민":15997,"심은":15998,"케미":15999,"민선":16000,"내면":16001,"수혜":16002,"개최한다":16003,"메일":16004,"단행":16005,"휴양":16006,"대중교통":16007,"해왔":16008,"기원":16009,"만으로도":16010,"GB":16011,"포천":16012,"올해의":16013,"실시한다":16014,"간담회에서":16015,"전반에":16016,"불편을":16017,"군포":16018,"자고":16019,"해줄":16020,"자매":16021,"다름":16022,"분과":16023,"환경부":16024,"81":16025,"열풍":16026,"위해선":16027,"눈물을":16028,"16개":16029,"선정해":16030,"방법이":16031,"생산하는":16032,"6억":16033,"수차례":16034,"하이닉":16035,"4개월":16036,"조성을":16037,"컨벤":16038,"정성":16039,"관여":16040,"빼앗":16041,"통영":16042,"10억":16043,"1970":16044,"정치인":16045,"개인정보":16046,"체력":16047,"산단":16048,"연계해":16049,"선거에":16050,"남미":16051,"인치":16052,"지혜":16053,"사건은":16054,"스태":16055,"추진한다":16056,"기준이":16057,"석유화학":16058,"8강":16059,"of":16060,"시달":16061,"현재는":16062,"가루":16063,"학자":16064,"용으로":16065,"고수":16066,"벌이":16067,"있으":16068,"100만원":16069,"단원":16070,"별다른":16071,"토론회":16072,"말레이시아":16073,"산업이":16074,"경남도":16075,"센터가":16076,"민주통합당":16077,"차에":16078,"사랑하는":16079,"인테리어":16080,"2개월":16081,"욕을":16082,"마찬가지다":16083,"클라우드":16084,"출국":16085,"막아":16086,"공립":16087,"째를":16088,"롯데마트":16089,"연관":16090,"대구경북":16091,"생애":16092,"지사가":16093,"고리":16094,"발탁":16095,"투표를":16096,"11개":16097,"전통시장":16098,"두에":16099,"홍준표":16100,"김대중":16101,"세균":16102,"사항은":16103,"김모":16104,"정면":16105,"어렵다는":16106,"비율을":16107,"처분을":16108,"지나치게":16109,"역으로":16110,"층을":16111,"재생에너지":16112,"낙찰":16113,"방송통신":16114,"oT":16115,"개관":16116,"물품":16117,"청춘":16118,"방통":16119,"지니":16120,"생각하고":16121,"돌아온":16122,"까지만":16123,"말할":16124,"비결":16125,"비타민":16126,"해임":16127,"들어갈":16128,"중국인":16129,"확인하고":16130,"공격을":16131,"시점":16132,"합의를":16133,"보라":16134,"16강":16135,"10년간":16136,"규정을":16137,"놓았다":16138,"것이었다":16139,"있느냐":16140,"찾아가":16141,"프랜차이":16142,"르기":16143,"않으":16144,"조지":16145,"SUV":16146,"업그레이드":16147,"싸고":16148,"캐피탈":16149,"상담을":16150,"김수":16151,"유공":16152,"쌓아":16153,"우대":16154,"웠던":16155,"항공기":16156,"작업에":16157,"게는":16158,"성폭행":16159,"하나가":16160,"리다":16161,"검출":16162,"OECD":16163,"굉장":16164,"대원":16165,"이모":16166,"단체장":16167,"특례":16168,"고성":16169,"에어컨":16170,"가족의":16171,"이렇":16172,"자존":16173,"분담":16174,"중국을":16175,"내일":16176,"손실을":16177,"않겠다":16178,"탁월":16179,"마련된":16180,"학부":16181,"거리에":16182,"비핵화":16183,"50년":16184,"떠난":16185,"위원회에서":16186,"국가가":16187,"체류":16188,"쿠르":16189,"94":16190,"DB":16191,"세금을":16192,"아메리":16193,"참모":16194,"결정할":16195,"메가":16196,"모습이다":16197,"수사에":16198,"가난":16199,"독점":16200,"방문객":16201,"자제":16202,"6회":16203,"나게":16204,"인센":16205,"살이":16206,"트럭":16207,"스틸":16208,"당뇨":16209,"부드러":16210,"출장":16211,"교도":16212,"양이":16213,"실정이다":16214,"렬한":16215,"폭을":16216,"중소형":16217,"동남아":16218,"명목":16219,"박찬":16220,"포착":16221,"푸른":16222,"기념해":16223,"정책과":16224,"논쟁":16225,"IoT":16226,"돌아가":16227,"IMF":16228,"인센티브":16229,"논의가":16230,"삼진":16231,"말도":16232,"서울중앙지검":16233,"93":16234,"청와대는":16235,"탑승":16236,"토요일":16237,"약속했다":16238,"매장을":16239,"신장":16240,"잇따":16241,"성장할":16242,"자신감을":16243,"기관인":16244,"제에":16245,"가구를":16246,"네요":16247,"교수의":16248,"소상공인":16249,"프로그램이":16250,"구성돼":16251,"어렵게":16252,"전도":16253,"이름이":16254,"날을":16255,"재활용":16256,"타수":16257,"소재로":16258,"거리는":16259,"아름다":16260,"4조":16261,"침몰":16262,"고백":16263,"마땅":16264,"팀장":16265,"국제공항":16266,"아이들":16267,"직원들의":16268,"''":16269,"김지":16270,"연애":16271,"회장과":16272,"자금이":16273,"카운":16274,"··":16275,"라이트":16276,"자료에":16277,"구청장":16278,"그나마":16279,"평가다":16280,"미흡":16281,"속도가":16282,"메이션":16283,"나가고":16284,"테크노":16285,"걸었다":16286,"사업이다":16287,"심으로":16288,"거래가":16289,"상태가":16290,"통일부":16291,"했었다":16292,"작품은":16293,"감소한":16294,"의문":16295,"권익":16296,"만나는":16297,"원가":16298,"흔히":16299,"8명":16300,"ot":16301,"막대한":16302,"패로":16303,"등록금":16304,"부착":16305,"사단":16306,"고래":16307,"시켰":16308,"없었":16309,"것입니다":16310,"서와":16311,"트렌드":16312,"로비":16313,"엑스":16314,"스리그":16315,"막판":16316,"92":16317,"무상급식":16318,"세한":16319,"아픔":16320,"평범":16321,"크를":16322,"편입":16323,"마약":16324,"인문학":16325,"포함됐다":16326,"늘어나고":16327,"국세청":16328,"전임":16329,"홍성":16330,"구와":16331,"시계":16332,"선수를":16333,"기분":16334,"야말로":16335,"전세계":16336,"몸이":16337,"양평":16338,"우가":16339,"윤석":16340,"조사가":16341,"공사에":16342,"사람들에게":16343,"비례대표":16344,"세련":16345,"하나인":16346,"국대":16347,"사업장":16348,"출신으로":16349,"길은":16350,"저항":16351,"안방":16352,"월급":16353,"집이":16354,"뉴얼":16355,"만이다":16356,"삼성물":16357,"메인":16358,"퍼런":16359,"교육지원":16360,"부산의":16361,"답게":16362,"어떠":16363,"금액을":16364,"취약계층":16365,"아니지만":16366,"수시로":16367,"조언했다":16368,"거세":16369,"쿠폰":16370,"유치를":16371,"영화의":16372,"적합한":16373,"뒤로":16374,"즐거운":16375,"지분을":16376,"실시했다":16377,"모르겠다":16378,"감사를":16379,"불만을":16380,"우회":16381,"색이":16382,"에서만":16383,"영동":16384,"혁신을":16385,"동일한":16386,"매진":16387,"설이":16388,"편의점":16389,"드래":16390,"시너지":16391,"벌여":16392,"한국시간":16393,"이니":16394,"그렇다면":16395,"힘들다":16396,"시ㆍ":16397,"우리나라의":16398,"생태계":16399,"주문했다":16400,"모습은":16401,"채워":16402,"2주":16403,"남겼다":16404,"방영":16405,"약한":16406,"민주당이":16407,"고스란히":16408,"력으로":16409,"반영해":16410,"쇄신":16411,"특성을":16412,"급락":16413,"이밖에":16414,"통해서":16415,"3점":16416,"외곽":16417,"봐도":16418,"관으로":16419,"재는":16420,"쪽은":16421,"산업통상":16422,"여주":16423,"기술과":16424,"어려움":16425,"130":16426,"리면":16427,"어져":16428,"인증을":16429,"프란":16430,"2학년":16431,"그림을":16432,"마를":16433,"지상파":16434,"피아노":16435,"cm":16436,"여권":16437,"일과":16438,"데스":16439,"승인을":16440,"CS":16441,"아라":16442,"2단계":16443,"용은":16444,"한겨레":16445,"못지":16446,"상황은":16447,"것보다":16448,"셨다":16449,"속의":16450,"중에서도":16451,"가능할":16452,"인성":16453,"자책":16454,"파격":16455,"해서는":16456,"현수":16457,"흡연":16458,"미국에":16459,"프랜차이즈":16460,"속에서도":16461,"해양수산":16462,"볼넷":16463,"장학금":16464,"공조":16465,"산책":16466,"오케스트라":16467,"스파":16468,"분석해":16469,"사태를":16470,"워터":16471,"활약을":16472,"PE":16473,"김천":16474,"다를":16475,"선수들은":16476,"반환":16477,"다채로운":16478,"시속":16479,"있어요":16480,"전략적":16481,"차지하고":16482,"목이":16483,"4위":16484,"버그":16485,"사실이다":16486,"벗어":16487,"부딪":16488,"부사장":16489,"시트":16490,"신제품":16491,"주자":16492,"지난해부터":16493,"개발과":16494,"아이스":16495,"자유무역":16496,"프리미어":16497,"기각":16498,"사흘":16499,"해명했다":16500,"찾지":16501,"타율":16502,"분들이":16503,"달러로":16504,"1000만":16505,"㎡(":16506,"실망":16507,"국민을":16508,"비판을":16509,"학교는":16510,"예외":16511,"안다":16512,"강화해":16513,"내년에":16514,"제기되고":16515,"진도":16516,"업체와":16517,"재발":16518,"시행령":16519,"거래소":16520,"보내고":16521,"불펜":16522,"VR":16523,"사안":16524,"한방":16525,"확인한":16526,"진화":16527,"프로그램에":16528,"조직을":16529,"워크숍":16530,"국으로":16531,"버려":16532,"원인을":16533,"정상회의":16534,"15년":16535,"보여주고":16536,"그랬":16537,"찍은":16538,"못했던":16539,"프로젝트를":16540,"그것이":16541,"위주의":16542,"재킷":16543,"KO":16544,"다수의":16545,"손가락":16546,"임용":16547,"플라스":16548,"대통령에게":16549,"소리가":16550,"STX":16551,"유용":16552,"비판이":16553,"워드":16554,"구성됐다":16555,"소비자가":16556,"난방":16557,"우스":16558,"필요성을":16559,"육군":16560,"추격":16561,"아니라는":16562,"감지":16563,"외과":16564,"통증":16565,"7회":16566,"\"'":16567,"바이러스":16568,"100년":16569,"메달을":16570,"기사를":16571,"무인":16572,"밖으로":16573,"전선":16574,"불량":16575,"제와":16576,"비록":16577,"포를":16578,"챙겨":16579,"합의했다":16580,"보훈":16581,"형은":16582,"원인이":16583,"7억":16584,"곳곳에서":16585,"설명회":16586,"일랜드":16587,"컨벤션":16588,"저하":16589,"톡톡":16590,"잊지":16591,"조정을":16592,"진한":16593,"관리가":16594,"후쿠":16595,"잠정":16596,"홈페이지를":16597,"포구":16598,"2인":16599,"역임":16600,"어디서":16601,"게이트":16602,"전력을":16603,"반박했다":16604,"ow":16605,"감찰":16606,"밀집":16607,"장악":16608,"시민사회":16609,"수준이":16610,"애플리":16611,"물량이":16612,"도시철도":16613,"일으킨":16614,"2명이":16615,"앞당":16616,"제도가":16617,"대학에":16618,"활발한":16619,"병원은":16620,"디자인을":16621,"당국의":16622,"유니폼":16623,"방송에서":16624,"선택할":16625,"많지":16626,"이들에게":16627,"칭찬":16628,"행동을":16629,"연평":16630,"00여":16631,"스트레스":16632,"주택을":16633,"여름철":16634,"이어가고":16635,"특별법":16636,"강사":16637,"근절":16638,"ES":16639,"잉글랜드":16640,"어업":16641,"추출":16642,"이용객":16643,"예상했다":16644,"두루":16645,"티드":16646,"하수":16647,"학업":16648,"쉽다":16649,"쓰러":16650,"고한":16651,"동결":16652,"산업통상자원":16653,"석탄":16654,"교육이":16655,"체육관에서":16656,"이한":16657,"중의":16658,"반응이":16659,"발령":16660,"역에서":16661,"컨소시":16662,"교장":16663,"은행과":16664,"해결할":16665,"들여다":16666,"지었다":16667,"케이스":16668,"5000원":16669,"영화는":16670,"감안해":16671,"붉은":16672,"시설과":16673,"플로":16674,"운영할":16675,"참여하고":16676,"그렇다":16677,"카이":16678,"사이의":16679,"tvN":16680,"KCC":16681,"연상":16682,"잇달아":16683,"것이며":16684,"경인":16685,"남긴":16686,"추진을":16687,"락을":16688,"열려":16689,"코미":16690,"수거":16691,"태도를":16692,"도시를":16693,"기후변화":16694,"개성공단":16695,"노하우를":16696,"대한민국의":16697,"DS":16698,"박종":16699,"불참":16700,"사물":16701,"추지":16702,"마이크로":16703,"위해서다":16704,"중재":16705,"키우는":16706,"한계가":16707,"경유":16708,"의지가":16709,"입국":16710,"않았고":16711,"안정을":16712,"PA":16713,"날아":16714,"오브":16715,"바꾸는":16716,"1분":16717,"잃은":16718,"일각에서는":16719,"셀러":16720,"위기가":16721,"맺고":16722,"고지":16723,"김주":16724,"블릿":16725,"머스":16726,"피로":16727,"협박":16728,"협의체":16729,"만성":16730,"상권":16731,"지원사업":16732,"컨소시엄":16733,"가맹점":16734,"의정":16735,"취를":16736,"타르":16737,"환은":16738,"넣고":16739,"잡지":16740,"적어":16741,"리버":16742,"이태":16743,"경제성장":16744,"과정이":16745,"경기는":16746,"마련할":16747,"응시":16748,"준비하는":16749,"듯하다":16750,"부정적인":16751,"워낙":16752,"가능하며":16753,"불과했다":16754,"명시":16755,"인재를":16756,"장면을":16757,"사람도":16758,"and":16759,"연동":16760,"파가":16761,"관왕":16762,"돌봄":16763,"ag":16764,"시진":16765,"경희":16766,"드라이":16767,"산지":16768,"아이디어를":16769,"500만원":16770,"정의당":16771,"바닷":16772,"후보자는":16773,"멀리":16774,"끝내":16775,"수원시":16776,"교황":16777,"어려움이":16778,"국에서":16779,"금의":16780,"전교조":16781,"아티스트":16782,"약속을":16783,"재원":16784,"하시":16785,"굉장히":16786,"비공개":16787,"정화":16788,"화제가":16789,"전국적으로":16790,"부정적":16791,"벌이는":16792,"여부에":16793,"직원을":16794,"테이블":16795,"정우":16796,"스팅":16797,"유료":16798,"수치다":16799,"양호":16800,"부가가치":16801,"3명이":16802,"소비자들의":16803,"개혁을":16804,"모인":16805,"빈곤":16806,"증상이":16807,"고에":16808,"바퀴":16809,"웃었다":16810,"첫째":16811,"포인":16812,"상공회의":16813,"미용":16814,"인에게":16815,"구호":16816,"주장하는":16817,"클러스터":16818,"1사":16819,"제2의":16820,"가와":16821,"제치고":16822,"한꺼":16823,"투자하는":16824,"몽골":16825,"us":16826,"스태프":16827,"대책이":16828,"별한":16829,"복구":16830,"장병":16831,"상실":16832,"진행해":16833,"공예":16834,"요구한":16835,"고마":16836,"싶었다":16837,"이외에도":16838,"과제를":16839,"삭제":16840,"드러나":16841,"노력하고":16842,"나라의":16843,"종전":16844,"급격히":16845,"논술":16846,"상품권":16847,"혈압":16848,"정부에서":16849,"즐기":16850,"터치":16851,"해킹":16852,"데이터를":16853,"성적이":16854,"신당":16855,"규모다":16856,"플랜트":16857,"단일화":16858,"제품이다":16859,"붙어":16860,"지요":16861,"선거법":16862,"MA":16863,"면담":16864,"사실은":16865,"기관은":16866,"분야를":16867,"한꺼번에":16868,"도우":16869,"경제에":16870,"스토어":16871,"유리한":16872,"김장":16873,"도시의":16874,"되기를":16875,"주면":16876,"밝혀졌다":16877,"기숙":16878,"중장기":16879,"트롤":16880,"더욱이":16881,"플라스틱":16882,"갖는다":16883,"세일":16884,"행사로":16885,"제기한":16886,"통장":16887,"선수로":16888,"프로그램으로":16889,"학회":16890,"1만원":16891,"산업은":16892,"고조":16893,"문제점을":16894,"인명":16895,"닷컴":16896,"안타깝":16897,"㎡)":16898,"커질":16899,"아끼지":16900,"쌍용":16901,"거절":16902,"김선":16903,"복무":16904,"남기":16905,"벽을":16906,"환경에":16907,"스토랑":16908,"폭로":16909,"기업들은":16910,"류를":16911,"택배":16912,"아들이":16913,"업소":16914,"판매가":16915,"법조":16916,"기능성":16917,"신년":16918,"부근":16919,"아일랜드":16920,"국토부":16921,"확보한":16922,"학생과":16923,"마스크":16924,"면이":16925,"연일":16926,"장비를":16927,"수송":16928,"주방":16929,"클린턴":16930,"단체가":16931,"알리고":16932,"따져":16933,"태블릿":16934,"지원과":16935,"활성화에":16936,"정례":16937,"성공적인":16938,"산의":16939,"영이":16940,"서비스가":16941,"합리적인":16942,"소폭":16943,"생겼다":16944,"스바":16945,"이젠":16946,"공연이":16947,"바라는":16948,"해준":16949,"선전":16950,"완주":16951,"되거나":16952,"순수":16953,"em":16954,"으로도":16955,"선언했다":16956,"매를":16957,"며칠":16958,"모래":16959,"처리를":16960,"출시했다":16961,"8회":16962,"개발이":16963,"기록해":16964,"상관없이":16965,"레스토랑":16966,"제기했다":16967,"배추":16968,"애로":16969,"강호":16970,"조율":16971,"300만":16972,"연결하는":16973,"id":16974,"아의":16975,"생길":16976,"전산":16977,"키스탄":16978,"문화유산":16979,"내놓았다":16980,"됩니다":16981,"부평":16982,"솔직":16983,"다음날":16984,"소재를":16985,"1박":16986,"보게":16987,"10만원":16988,"하되":16989,"5배":16990,"언니":16991,"기만":16992,"동에서":16993,"발표를":16994,"초청해":16995,"금융지주":16996,"꾸준한":16997,"1부":16998,"대입":16999,"이것이":17000,"초부터":17001,"봉사활동을":17002,"높아졌다":17003,"삼성전자가":17004,"디움":17005,"전체를":17006,"로이":17007,"손상":17008,"았는데":17009,"작품이":17010,"자랑하는":17011,"불투명":17012,"토리":17013,"생각했다":17014,"결론을":17015,"속도로":17016,"터가":17017,"조치가":17018,"원칙을":17019,"KT는":17020,"문서":17021,"위촉":17022,"9회":17023,"타석":17024,"업체들은":17025,"자리가":17026,"테일":17027,"휴게":17028,"광고를":17029,"행사에는":17030,"집중적으로":17031,"이어갔다":17032,"그게":17033,"스케이":17034,"이화":17035,"조회":17036,"미분양":17037,"입장에서":17038,"지난해에는":17039,"노벨":17040,"듣는":17041,"신발":17042,"준수":17043,"펼칠":17044,"대여":17045,"총액":17046,"치솟":17047,"갑작":17048,"외식":17049,"새누리당은":17050,"바꾼":17051,"경부":17052,"유성":17053,"중복":17054,"이라크":17055,"주의를":17056,"근거로":17057,"훈은":17058,"유학":17059,"학교가":17060,"개교":17061,"버렸다":17062,"캠페인을":17063,"박태":17064,"교육은":17065,"배경으로":17066,"벤치":17067,"정부를":17068,"40분":17069,"명백":17070,"기자회견에서":17071,"선과":17072,"핑크":17073,"나갔다":17074,"터는":17075,"획기":17076,"교육에":17077,"이후에도":17078,"DM":17079,"대학을":17080,"상속":17081,"연내":17082,"12시":17083,"국민에게":17084,"센터에":17085,"탄력":17086,"상태에":17087,"양해":17088,"강화하는":17089,"눈물":17090,"31일까지":17091,"벤처기업":17092,"중이":17093,"무단":17094,"분권":17095,"나은":17096,"디젤":17097,"미뤄":17098,"우유":17099,"견인":17100,"들어서는":17101,"안타를":17102,"막는":17103,"이곳에서":17104,"일종의":17105,"범위를":17106,"입장이":17107,"진지":17108,"사람에게":17109,"도요":17110,"난민":17111,"충격을":17112,"필름":17113,"내놓고":17114,"단지를":17115,"현이":17116,"즐겨":17117,"혈액":17118,"림을":17119,"선행":17120,"대구의":17121,"소문":17122,"유효":17123,"하나다":17124,"리바":17125,"하드":17126,"고통을":17127,"바람을":17128,"무력":17129,"상품으로":17130,"아직까지":17131,"산업혁명":17132,"국회가":17133,"관료":17134,"빚어":17135,"추어":17136,"금융권":17137,"되던":17138,"병역":17139,"서양":17140,"근대":17141,"카드는":17142,"조별":17143,"공사의":17144,"영리":17145,"응모":17146,"국채":17147,"인식을":17148,"추정된다":17149,"아세":17150,"목격":17151,"제공해":17152,"수상한":17153,"조한":17154,"중요성을":17155,"못하면":17156,"육박":17157,"박정희":17158,"삼성화재":17159,"감독과":17160,"먹거리":17161,"불가능하다":17162,"이상인":17163,"1995년":17164,"대상에":17165,"발표할":17166,"비상대책":17167,"공정한":17168,"MV":17169,"개정안을":17170,"줄이기":17171,"의원들의":17172,"가산":17173,"점심":17174,"상승한":17175,"보낼":17176,"짐을":17177,"생활에":17178,"경호":17179,"거대한":17180,"프로골프":17181,"아파트를":17182,"경제협력":17183,"감에":17184,"소식이":17185,"쾌한":17186,"방송된다":17187,"명이다":17188,"화할":17189,"뽑아":17190,"하에":17191,"이석":17192,"잃어":17193,"커버":17194,"수색":17195,"전사":17196,"태어난":17197,"선에서":17198,"이식":17199,"170":17200,"겨울철":17201,"창원시":17202,"유전자":17203,"일요일":17204,"언론에":17205,"이번엔":17206,"도출":17207,"판이":17208,"LNG":17209,"공약을":17210,"하듯":17211,"군에서":17212,"안된다":17213,"줄기":17214,"아이들을":17215,"서식":17216,"필드":17217,"프로농구":17218,"부장판사":17219,"실과":17220,"두드러":17221,"분석을":17222,"대피":17223,"보궐":17224,"특구":17225,"세계에":17226,"스윙":17227,"예전":17228,"형의":17229,"타임스":17230,"주장하고":17231,"//":17232,"셀로":17233,"연말까지":17234,"자진":17235,"방식이다":17236,"무엇을":17237,"5만원":17238,"번도":17239,"외모":17240,"감도":17241,"당당":17242,"소니":17243,"일리":17244,"상에서":17245,"신탁":17246,"주민이":17247,"애니메이션":17248,"15개":17249,"기관으로":17250,"영향이":17251,"헌법재판":17252,"복수":17253,"예정이며":17254,"김정일":17255,"LCD":17256,"유지할":17257,"감성":17258,"교부":17259,"내리는":17260,"트에":17261,"체계적인":17262,"요원":17263,"판교":17264,"…\"":17265,"아픈":17266,"출제":17267,"받았던":17268,"였으며":17269,"렸지만":17270,"참가해":17271,"전라":17272,"성공을":17273,"점검을":17274,"단백":17275,"빨간":17276,"임의":17277,"인들은":17278,"임에도":17279,"분석된다":17280,"꾸며":17281,"증권사":17282,"값을":17283,"고추":17284,"남을":17285,"내릴":17286,"년의":17287,"염두에":17288,"해주고":17289,"강점":17290,"비에":17291,"했다면":17292,"기독":17293,"장관의":17294,"사용자":17295,"정치를":17296,"그녀는":17297,"op":17298,"해달라":17299,"CN":17300,"됐기":17301,"연평균":17302,"남용":17303,"반발하고":17304,"혈관":17305,"정권의":17306,"스틱":17307,"남도":17308,"해피":17309,"포인트를":17310,"시위를":17311,"산과":17312,"서버":17313,"저를":17314,"FIFA":17315,"멋진":17316,"AD":17317,"바른미래":17318,"말부터":17319,"주변의":17320,"인체":17321,"굳이":17322,"산에":17323,"성매매":17324,"골라":17325,"부도":17326,"호흡을":17327,"걸렸다":17328,"하나는":17329,"소통을":17330,"보금":17331,"재미를":17332,"베를":17333,"하도급":17334,"문제다":17335,"110":17336,"상품은":17337,"혜택이":17338,"식과":17339,"하락한":17340,"올레":17341,"마련을":17342,"소비자들이":17343,"그저":17344,"타격을":17345,"대금":17346,"서비스는":17347,"리서치":17348,"판사는":17349,"형으로":17350,"기대감을":17351,"갤럭시S":17352,"신혼":17353,"나중에":17354,"사회에서":17355,"수준인":17356,"비교하면":17357,"이끌고":17358,"준비했다":17359,"설립된":17360,"전설":17361,"건설을":17362,"개선에":17363,"예산안":17364,"이내에":17365,"막고":17366,"발로":17367,"투자해":17368,"노조가":17369,"깔끔":17370,"로버":17371,"방안에":17372,"이견":17373,"바꿨":17374,"속속":17375,"영등":17376,"사카":17377,"운을":17378,"차이를":17379,"우리은행":17380,"ct":17381,"소홀":17382,"경제자유":17383,"’…":17384,"오버":17385,"문경":17386,"LI":17387,"버락":17388,"출시한":17389,"주목받고":17390,"졸업생":17391,"여가":17392,"힘들어":17393,"강조한":17394,"선호하는":17395,"수사가":17396,"척추":17397,"자체를":17398,"국외":17399,"지정된":17400,"다르게":17401,"책정":17402,"팔아":17403,"St":17404,"바른정당":17405,"페어":17406,"진흥원":17407,"텍스":17408,"물건을":17409,"공연은":17410,"유럽연합":17411,"500여":17412,"감정을":17413,"사다":17414,"잖아":17415,"나타난":17416,"상당수":17417,"로서의":17418,"차량이":17419,"부상으로":17420,"연도":17421,"촬영을":17422,"ir":17423,"여왕":17424,"주와":17425,"자율주행":17426,"구멍":17427,"반영한":17428,"1단계":17429,"다할":17430,"고무":17431,"아스":17432,"온천":17433,"the":17434,"세상에":17435,"현상을":17436,"일치":17437,"지역민":17438,"가입자":17439,"배럴":17440,"주며":17441,"정보가":17442,"이해할":17443,"타점":17444,"후보와":17445,"평가에서":17446,"2대":17447,"께서":17448,"회사인":17449,"ㅋㅋ":17450,"영세":17451,"일명":17452,"재고":17453,"합성":17454,"현장의":17455,"1990년대":17456,"일본에":17457,"추구하는":17458,"기준에":17459,"병원으로":17460,"누릴":17461,"법령":17462,"카르":17463,"운영해":17464,"운동에":17465,"자회담":17466,"북한을":17467,"um":17468,"이집":17469,"경기장에서":17470,"중소기업의":17471,"겨우":17472,"스킨":17473,"기존에":17474,"아웃도어":17475,"메이크업":17476,"300여":17477,"환승":17478,"아버지가":17479,"박병":17480,"의지":17481,"요구에":17482,"4명이":17483,"에프":17484,"창조경제":17485,"91":17486,"주관하는":17487,"대표로":17488,"맞대결":17489,"학교의":17490,"청와대가":17491,"쓰지":17492,"작을":17493,"탱크":17494,"단장은":17495,"도지사":17496,"신생":17497,"go":17498,"부자":17499,"지역과":17500,"관리하는":17501,"책으로":17502,"가족을":17503,"코미디":17504,"시세":17505,"탈퇴":17506,"인식이":17507,"5개월":17508,"마련하고":17509,"나서야":17510,"정규리그":17511,"경제자유구역":17512,"8억":17513,"쓰기":17514,"편에":17515,"기자들과":17516,"소득이":17517,"고대":17518,"지키는":17519,"아르헨":17520,"5조":17521,"활용하는":17522,"연루":17523,"중립":17524,"이듬":17525,"공부를":17526,"션은":17527,"명도":17528,"박차를":17529,"빨라":17530,"국인":17531,"남양":17532,"순이었다":17533,"사용하고":17534,"도입을":17535,"LG전자는":17536,"17개":17537,"영국의":17538,"가정의":17539,"편의를":17540,"파악하고":17541,"오른다":17542,"TI":17543,"박상":17544,"판정을":17545,"구성원":17546,"울릉":17547,"ut":17548,"재로":17549,"천군":17550,"선정했다":17551,"주교":17552,"돌아왔다":17553,"관측이":17554,"냈고":17555,"나라를":17556,"연예인":17557,"가축":17558,"개성":17559,"손해배상":17560,"TS":17561,"달간":17562,"박사는":17563,"새겨":17564,"옆에":17565,"국민은행":17566,"그라운드":17567,"다각":17568,"아니라고":17569,"담당하는":17570,"정시":17571,"최고경영자":17572,"총리의":17573,"고양시":17574,"수요를":17575,"일제히":17576,"어쩌":17577,"용량":17578,"주니어":17579,"시스템이":17580,"밥을":17581,"영수":17582,"회생":17583,"삼성의":17584,"규정하고":17585,"수신":17586,"한계":17587,"30일까지":17588,"공군":17589,"아랍":17590,"관계에":17591,"자다":17592,"재단은":17593,"남동":17594,"분위기다":17595,"행보":17596,"자신들의":17597,"축제를":17598,"2022년":17599,"실리콘":17600,"부장은":17601,"메디":17602,"침묵":17603,"톨릭":17604,"교사는":17605,"배후":17606,"세입":17607,"출생":17608,"크리스마스":17609,"자동으로":17610,"비만":17611,"답답":17612,"당과":17613,"거주하는":17614,"자격을":17615,"비용은":17616,"구체적":17617,"tp":17618,"인제":17619,"하기가":17620,"차익":17621,"구축을":17622,"2020년까지":17623,"준비한":17624,"위장":17625,"연구위원은":17626,"CG":17627,"라이언":17628,"대단":17629,"박원순":17630,"이듬해":17631,"생계":17632,"고객들이":17633,"늘리는":17634,"역세":17635,"1학년":17636,"광장에서":17637,"대박":17638,"확립":17639,"시설에":17640,"온실가스":17641,"공론":17642,"농식품":17643,"리즘":17644,"다양하게":17645,"비드":17646,"im":17647,"기인":17648,"영원":17649,"호수":17650,"국민들의":17651,"어민":17652,"확실한":17653,"이어진다":17654,"구름":17655,"유전":17656,"살아가는":17657,"취한":17658,"형식으로":17659,"연계한":17660,"평론":17661,"억울":17662,"한옥":17663,"”…":17664,"적도":17665,"예술의":17666,"1월부터":17667,"회로":17668,"라면서":17669,"신약":17670,"정몽":17671,"권한을":17672,"정상적인":17673,"산불":17674,"기관을":17675,"스타일을":17676,"훌륭한":17677,"금과":17678,"여고":17679,"해결하기":17680,"여론이":17681,"결산":17682,"보편":17683,"남양주":17684,"동원해":17685,"화될":17686,"비전을":17687,"청장":17688,"살펴보면":17689,"과징":17690,"바꿀":17691,"바이어":17692,"예산은":17693,"높고":17694,"보여줬다":17695,"2위를":17696,"그날":17697,"갖췄다":17698,"그에게":17699,"렉스":17700,"방식이":17701,"받았고":17702,"넣은":17703,"정보기술":17704,"다툼":17705,"유한":17706,"감으로":17707,"확실히":17708,"세계의":17709,"맺은":17710,"버스를":17711,"했으면":17712,"통합진보":17713,"절약":17714,"벌어졌다":17715,"치른":17716,"역이":17717,"발전과":17718,"군인":17719,"본인이":17720,"경영을":17721,"이뤄지는":17722,"챔피언스리그":17723,"곳도":17724,"유독":17725,"아나운":17726,"다해":17727,"벤츠":17728,"조선일보":17729,"일어난":17730,"국과":17731,"발견된":17732,"오리온":17733,"비엔":17734,"심해":17735,"이순":17736,"정통":17737,"공동주택":17738,"교정":17739,"꾸려":17740,"자원을":17741,"커졌다":17742,"사무처":17743,"영역을":17744,"전락":17745,"서울과":17746,"광산":17747,"그루":17748,"밀히":17749,"영의":17750,"이끌었다":17751,"긍정적":17752,"스피드":17753,"것이라":17754,"로켓":17755,"예요":17756,"결정에":17757,"법안을":17758,"일괄":17759,"기술로":17760,"그라":17761,"때문으로":17762,"임대료":17763,"미친":17764,"예매":17765,"있다며":17766,"기록하고":17767,"심사위원":17768,"동북아":17769,"이색":17770,"최경":17771,"남한":17772,"들어간다":17773,"꺾고":17774,"펀드는":17775,"간단":17776,"직면":17777,"50분":17778,"시킨다":17779,"어떠한":17780,"아르헨티":17781,"KE":17782,"물고":17783,"받으면":17784,"키즈":17785,"의원도":17786,"텍사":17787,"방식의":17788,"성수":17789,"9명":17790,"당해":17791,"밝은":17792,"서운":17793,"데이트":17794,"1승":17795,"득표":17796,"저널":17797,"준은":17798,"동반성장":17799,"시진핑":17800,"가톨릭":17801,"13개":17802,"주전":17803,"소지":17804,"신화":17805,"작가가":17806,"최적의":17807,"세다":17808,"우의":17809,"집회를":17810,"사업도":17811,"이어져":17812,"생기는":17813,"신성장":17814,"대학이":17815,"김무성":17816,"공급하는":17817,"드레":17818,"전문의":17819,"마의":17820,"관광객이":17821,"나름":17822,"입력":17823,"부르크":17824,"반성":17825,"위법":17826,"넘어서":17827,"반을":17828,"건물을":17829,"합계":17830,"목에":17831,"넘은":17832,"징계를":17833,"EBS":17834,"재학":17835,"25년":17836,"삼척":17837,"테랑":17838,"행정부":17839,"음원":17840,"재검토":17841,"짓고":17842,"3번":17843,"과제로":17844,"크지":17845,"UN":17846,"자로서":17847,"3월부터":17848,"해운대":17849,"에버":17850,"출연한":17851,"국정감사":17852,"분열":17853,"연승을":17854,"에서다":17855,"단지는":17856,"막이":17857,"스트리트":17858,"등장하는":17859,"단위로":17860,"바쁜":17861,"속초":17862,"지불":17863,"에너지를":17864,"비싸":17865,"한도":17866,"정도를":17867,"불편한":17868,"나들":17869,"강화할":17870,"겁니다":17871,"고전":17872,"풍경":17873,"ㄱ씨는":17874,"견제":17875,"상처를":17876,"상부":17877,"소집":17878,"행진":17879,"증가하는":17880,"느낌이":17881,"로서는":17882,"현의":17883,"의미다":17884,"소방서":17885,"http":17886,"케미칼":17887,"국책":17888,"당기":17889,"실시하는":17890,"그렇다고":17891,"중형":17892,"까지도":17893,"조사는":17894,"친절":17895,"틀어":17896,"스트로":17897,"선택한":17898,"향을":17899,"5m":17900,"JT":17901,"상원":17902,"봉사활동":17903,"그들이":17904,"앞으로는":17905,"보호를":17906,"해수욕":17907,"발송":17908,"조로":17909,"캘리포":17910,"대표팀은":17911,"**":17912,"1루":17913,"잠수":17914,"열악한":17915,"정하고":17916,"활동하고":17917,"ore":17918,"선수들을":17919,"ap":17920,"ce":17921,"펼친다":17922,"백지":17923,"었습니다":17924,"PP":17925,"조에":17926,"체험을":17927,"방의":17928,"감치":17929,"식사를":17930,"정서":17931,"작품이다":17932,"고민을":17933,"스마트폰을":17934,"DJ":17935,"마사":17936,"유네":17937,"패스트":17938,"설립한":17939,"동아일보":17940,"출시된":17941,"승무":17942,"ur":17943,"5위":17944,"유죄":17945,"대치":17946,"중시":17947,"선수의":17948,"심도":17949,"묻자":17950,"바르셀로":17951,"!”":17952,"포토":17953,"어쩔":17954,"협상이":17955,"휘발":17956,"몇몇":17957,"이뤄진다":17958,"끊이지":17959,"아무개":17960,"일방적으로":17961,"로로":17962,"민주당의":17963,"담보대출":17964,"감동을":17965,"걸리":17966,"하세요":17967,"특성상":17968,"구석":17969,"모자":17970,"미치지":17971,"변을":17972,"지노":17973,"안과":17974,"팅을":17975,"할리":17976,"등재":17977,"론이":17978,"베네":17979,"실시간으로":17980,"지역별":17981,"놓을":17982,"야마":17983,"청의":17984,"현대차는":17985,"포트폴리":17986,"고와":17987,"넘었다":17988,"코오":17989,"떨어질":17990,"브랜드로":17991,"까다":17992,"임금을":17993,"확보하고":17994,"평범한":17995,"바라보는":17996,"유네스코":17997,"데려":17998,"브레이":17999,"식량":18000,"풍력":18001,"걷기":18002,"독려":18003,"행위가":18004,"생활체육":18005,"소비자의":18006,"드러난":18007,"내각":18008,"언급했다":18009,"://":18010,"인디":18011,"출전해":18012,"공중":18013,"업체들의":18014,"여건이":18015,"이창":18016,"타결":18017,"임차":18018,"결심":18019,"화보":18020,"나이가":18021,"장관을":18022,"곤란":18023,"끝으로":18024,"받으":18025,"발표된":18026,"드의":18027,"꼬집":18028,"지방자치":18029,"신한은행":18030,"과감":18031,"대성":18032,"?)":18033,"얼음":18034,"행위에":18035,"산업에":18036,"밝히고":18037,"사옥":18038,"제네":18039,"메시지":18040,"개시":18041,"부지에":18042,"영주":18043,"이윤":18044,"부에서":18045,"시장으로":18046,"형식":18047,"코오롱":18048,"AE":18049,"귀농":18050,"사모":18051,"지방경찰청":18052,"확보해":18053,"부드러운":18054,"시대가":18055,"하향":18056,"복잡한":18057,"총장이":18058,"논란에":18059,"그해":18060,"노르":18061,"풍을":18062,"나누는":18063,"기온이":18064,"가다":18065,"장기간":18066,"아이들은":18067,"SW":18068,"찌감치":18069,"노선을":18070,"베테랑":18071,"KAI":18072,"전송":18073,"조건으로":18074,"극적인":18075,"가벼운":18076,"시민들에게":18077,"신용등급":18078,"각자":18079,"주가는":18080,"선보여":18081,"넘어섰다":18082,"지지율":18083,"국도":18084,"한국어":18085,"2500":18086,"시민과":18087,"테마파크":18088,"만만치":18089,"사도":18090,"시픽":18091,"캐스팅":18092,"경쟁력이":18093,"생명을":18094,"틀을":18095,"만원이":18096,"4번":18097,"법원은":18098,"성균":18099,"파라":18100,"문제도":18101,"MI":18102,"공청":18103,"김준":18104,"시작하는":18105,"스바겐":18106,"김희":18107,"내용으로":18108,"독립운동":18109,"14개":18110,"대응을":18111,"판단을":18112,"위원장과":18113,"장거리":18114,"부러":18115,"성추행":18116,"씨에":18117,"안전관리":18118,"공백":18119,"운이":18120,"건축물":18121,"자택":18122,"종은":18123,"예비후보":18124,"ETF":18125,"근본적인":18126,"15만":18127,"나타나고":18128,"소외계층":18129,"알렸다":18130,"고로":18131,"땅을":18132,"차의":18133,"법원에":18134,"크기":18135,"않았다는":18136,"1994년":18137,"느끼고":18138,"시립":18139,"컨트롤":18140,"깨끗한":18141,"관계없이":18142,"학교폭력":18143,"도로를":18144,"동은":18145,"의식을":18146,"가라":18147,"붙은":18148,"사육":18149,"없던":18150,"역에":18151,"프로세":18152,"대학은":18153,"직권":18154,"프를":18155,"이용자":18156,"통신은":18157,"20개":18158,"우호":18159,"컬렉":18160,"제작한":18161,"가뭄":18162,"가면서":18163,"페이지":18164,"좌석":18165,"시카":18166,"책임이":18167,"도입한":18168,"7월부터":18169,"1996년":18170,"스프링":18171,"움직임이":18172,"화되고":18173,"발견됐다":18174,"선물을":18175,"년이":18176,"스카이":18177,"달콤":18178,"3억원":18179,"달에":18180,"부상을":18181,"적용한":18182,"이르기까지":18183,"났고":18184,"미네":18185,"선대":18186,"응용":18187,"신속한":18188,"약간":18189,"코리아는":18190,"될지":18191,"저희":18192,"대상자":18193,"센터와":18194,"그들은":18195,"EA":18196,"정책은":18197,"MVP":18198,"규탄":18199,"연인":18200,"이외":18201,"저감":18202,"층에":18203,"대변인":18204,"탐구":18205,"합창":18206,"미국을":18207,"3시간":18208,"계획이라고":18209,"민속":18210,"신재생에너지":18211,"찍어":18212,"는데도":18213,"제목의":18214,"금품":18215,"역사의":18216,"길로":18217,"본인의":18218,"금액이":18219,"주축":18220,"선수권대회":18221,"쉽고":18222,"초에":18223,"이하로":18224,"될까":18225,"례를":18226,"었기":18227,"아파트는":18228,"부사장은":18229,"여의":18230,"저출산":18231,"총선에서":18232,"DA":18233,"적어도":18234,"청장은":18235,"키퍼":18236,"화력":18237,"움직임을":18238,"이준":18239,"뉴타운":18240,"일반적으로":18241,"화장실":18242,"지키고":18243,"외로":18244,"환급":18245,"올리며":18246,"단체는":18247,"ter":18248,"좋고":18249,"파일":18250,"홀딩":18251,"업계에서는":18252,"여파로":18253,"즈의":18254,"홍삼":18255,"판정":18256,"늘리고":18257,"승용차":18258,"지역주민":18259,"그릇":18260,"달라진":18261,"남해":18262,"높다는":18263,"의미한다":18264,"제출했다":18265,"검진":18266,"마에":18267,"스런":18268,"청과":18269,"우리나라는":18270,"앱을":18271,"경산":18272,"도입해":18273,"끝나":18274,"동탄":18275,"오세":18276,"차이나":18277,"출하":18278,"확보에":18279,"엔지니어링":18280,"소액":18281,"회관에서":18282,"나라가":18283,"소득세":18284,"기장":18285,"중진":18286,"최대의":18287,"서울시장":18288,"위대한":18289,"강동":18290,"지던":18291,"포괄":18292,"귀를":18293,"타입":18294,"단식":18295,"성주":18296,"온도":18297,"19대":18298,"산정":18299,"덕분":18300,"죄송":18301,"얘기가":18302,"확보했다":18303,"대답":18304,"똑같은":18305,"카를":18306,"농업기술":18307,"재산을":18308,"공직자":18309,"증정한다":18310,"보람":18311,"BI":18312,"회의에":18313,"것인":18314,"양극":18315,"한전":18316,"정상에":18317,"효율적인":18318,"정확하게":18319,"아이들에게":18320,"\",":18321,"부추":18322,"수료":18323,"증대":18324,"답변을":18325,"기다리고":18326,"아기":18327,"아이의":18328,"어두":18329,"조가":18330,"협력해":18331,"올스타":18332,"계획은":18333,"제안을":18334,"스펙":18335,"학대":18336,"무엇이":18337,"결정이":18338,"현황을":18339,"겨냥한":18340,"재의":18341,"진단을":18342,"사면":18343,"TV를":18344,"오늘날":18345,"부르는":18346,"당황":18347,"동과":18348,"동문":18349,"사직":18350,"저작":18351,"역사와":18352,"당에":18353,"조종":18354,"높아진":18355,"꺼내":18356,"기술력을":18357,"백신":18358,"1년에":18359,"가방":18360,"버드":18361,"공방":18362,"사람과":18363,"홈페이지에":18364,"CO":18365,"이도":18366,"퍼니":18367,"피할":18368,"미래의":18369,"추세다":18370,"2억원":18371,"서산":18372,"공적":18373,"류가":18374,"슬러":18375,"리안":18376,"선보이고":18377,"한중":18378,"5000만":18379,"버리고":18380,"원인으로":18381,"신경을":18382,"농장":18383,"농축":18384,"교직원":18385,"관제":18386,"만인":18387,"사외":18388,"유포":18389,"탄탄한":18390,"늘리":18391,"입구":18392,"애플리케이션":18393,"쇼트":18394,"유지하는":18395,"탁월한":18396,"개발사업":18397,"마케팅을":18398,"진압":18399,"영업이익은":18400,"금연":18401,"기쁘다":18402,"걸그룹":18403,"날로":18404,"요인이":18405,"재계":18406,"명령을":18407,"인사가":18408,"후에는":18409,"셋째":18410,"사천":18411,"이뤘다":18412,"증설":18413,"각국":18414,"고장":18415,"됐으나":18416,"숨겨":18417,"자식":18418,"동아시아":18419,"양적":18420,"중지":18421,"학계":18422,"였다는":18423,"중산":18424,"측과":18425,"DC":18426,"초대형":18427,"그것은":18428,"좋을":18429,"사회는":18430,"폭으로":18431,"5억원":18432,"녹지":18433,"인접":18434,"과태료":18435,"구장":18436,"영천":18437,"적이었다":18438,"이뤄지고":18439,"바뀌었다":18440,"내게":18441,"분야는":18442,"롯데백화점":18443,"표결":18444,"프로듀":18445,"영업을":18446,"심의를":18447,"자격증":18448,"사한":18449,"협조를":18450,"년을":18451,"위험을":18452,"각광":18453,"봉투":18454,"월세":18455,"지사의":18456,"은행에":18457,"스타디움":18458,"협회가":18459,"일찌감치":18460,"꿈꾸는":18461,"부합":18462,"디스크":18463,"퍼시픽":18464,"히지":18465,"안정적으로":18466,"정상회담을":18467,"베를린":18468,"움직이는":18469,"언제나":18470,"논리":18471,"동포":18472,"산악":18473,"옵션":18474,"경찰관":18475,"써야":18476,"확보할":18477,"논의할":18478,"아버지의":18479,"권리를":18480,"역할이":18481,"신입생":18482,"몰래":18483,"묘한":18484,"태어":18485,"여신":18486,"중이며":18487,"뚜렷한":18488,"1960":18489,"논의했다":18490,"지붕":18491,"손쉽게":18492,"전동":18493,"2번":18494,"창출을":18495,"걸친":18496,"심어":18497,"결성":18498,"방북":18499,"씨도":18500,"대체로":18501,"네트워크를":18502,"ity":18503,"350":18504,"CF":18505,"물량을":18506,"벌어지는":18507,"미얀":18508,"사진이":18509,"당할":18510,"배운":18511,"장관과":18512,"떠나는":18513,"좌파":18514,"헤드":18515,"기대가":18516,"대림":18517,"발전의":18518,"PB":18519,"교사가":18520,"없으면":18521,"잔디":18522,"타협":18523,"센터장은":18524,"사건으로":18525,"보여줄":18526,"클래스":18527,"NL":18528,"었으며":18529,"워킹":18530,"국가안보":18531,"등장했다":18532,"나눴":18533,"읽는":18534,"찾는다":18535,"소연":18536,"영구":18537,"김형":18538,"날레":18539,"력에":18540,"양보":18541,"결정한":18542,"커뮤니케이션":18543,"든든":18544,"세우는":18545,"병이":18546,"2000년대":18547,"양육":18548,"읽고":18549,"보다도":18550,"문화관광":18551,"감사의":18552,"114":18553,"도시계획":18554,"음식점":18555,"고구":18556,"못하게":18557,"청취":18558,"등록을":18559,"실시해":18560,"다큐멘":18561,"3으로":18562,"오면서":18563,"목표는":18564,"자산관리":18565,"법제":18566,"상해":18567,"서울시가":18568,"5000만원":18569,"자녀를":18570,"의혹에":18571,"감수":18572,"절차가":18573,"차질":18574,"\"…":18575,"전문가들의":18576,"차게":18577,"전체가":18578,"예방을":18579,"들지":18580,"박용":18581,"복용":18582,"학급":18583,"투자에":18584,"th":18585,"그것을":18586,"확산되고":18587,"녹음":18588,"두를":18589,"교육과학기술":18590,"국민적":18591,"실시할":18592,"내장":18593,"구속영장을":18594,"차트":18595,"펼치는":18596,"혼합":18597,"삼성전자의":18598,"사교육":18599,"이현":18600,"이곳은":18601,"중증":18602,"나가야":18603,"않겠다는":18604,"만찬":18605,"어지고":18606,"오름":18607,"처가":18608,"연체":18609,"용역을":18610,"포도":18611,"기독교":18612,"남다른":18613,"수출이":18614,"노력할":18615,"찬반":18616,"한국전력":18617,"불꽃":18618,"되게":18619,"식에는":18620,"국회를":18621,"나타나는":18622,"수익률을":18623,"배에":18624,"색다른":18625,"남의":18626,"넘는다":18627,"해진다":18628,"상습":18629,"있었는데":18630,"블라":18631,"소나무":18632,"넣었다":18633,"슨은":18634,"시골":18635,"개발하고":18636,"2사":18637,"유가족":18638,"경기침체":18639,"센터의":18640,"상품이":18641,"민감한":18642,"대인":18643,"잠을":18644,"효과는":18645,"명목으로":18646,"일일":18647,"취지로":18648,"신선한":18649,"ul":18650,"무렵":18651,"지수가":18652,"안드로":18653,"공장에서":18654,"님이":18655,"아시아나항공":18656,"넘기":18657,"적시":18658,"주름":18659,"요금을":18660,"해명":18661,"법원이":18662,"본을":18663,"나주":18664,"애를":18665,"대우조선해양":18666,"3분":18667,"설명을":18668,"값은":18669,"당신":18670,"전경":18671,"기술은":18672,"호소했다":18673,"비닐":18674,"사정이":18675,"위상을":18676,"세이브":18677,"보금자리":18678,"업계가":18679,"역설":18680,"1200":18681,"공판":18682,"등장한":18683,"다니며":18684,"패러다":18685,"종종":18686,"마을을":18687,"LG화학":18688,"삼성이":18689,"유사한":18690,"절을":18691,"2명을":18692,"경연":18693,"미로":18694,"금강산":18695,"1명이":18696,"사이클":18697,"금감원":18698,"부문의":18699,"선별":18700,"당진":18701,"기다려":18702,"휴일":18703,"인터뷰를":18704,"낮춰":18705,"조형":18706,"가격으로":18707,"DMZ":18708,"가구의":18709,"골키퍼":18710,"익산":18711,"한라":18712,"고객들의":18713,"선정한":18714,"남아공":18715,"시원한":18716,"가볍게":18717,"났지만":18718,"수련":18719,"작으로":18720,"더는":18721,"신청한":18722,"모양새":18723,"김문":18724,"롯데는":18725,"제공된다":18726,"휩싸":18727,"모듈":18728,"체의":18729,"총생산":18730,"진출한":18731,"전환을":18732,"평화의":18733,"양해각":18734,"우리에게":18735,"발생해":18736,"극심한":18737,"티셔츠":18738,"방문하는":18739,"떨어뜨":18740,"헬스케어":18741,"평가는":18742,"맺었다":18743,"전일":18744,"사설":18745,"처는":18746,"프로그램이다":18747,"'…":18748,"거제":18749,"걸릴":18750,"기술의":18751,"많았고":18752,"인쇄":18753,"대학에서":18754,"구매할":18755,"백악관":18756,"소개한다":18757,"주소":18758,"시작할":18759,"보고서는":18760,"주의가":18761,"퇴출":18762,"파를":18763,"여성은":18764,"지키기":18765,"밀착":18766,"오사카":18767,"만큼은":18768,"하고도":18769,"조별리그":18770,"입체":18771,"패스":18772,"JTBC":18773,"두로":18774,"시에서":18775,"입었다":18776,"시민들은":18777,"건수는":18778,"겪었다":18779,"석의":18780,"소위":18781,"설명회를":18782,"무실":18783,"내륙":18784,"살기":18785,"쌍용차":18786,"공사와":18787,"선정돼":18788,"1등":18789,"금리는":18790,"처한":18791,"피부를":18792,"지자체가":18793,"주신":18794,"일본을":18795,"한복":18796,"붙잡":18797,"12만":18798,"보도를":18799,"1의":18800,"영하":18801,"구축해":18802,"KBS2":18803,"…”":18804,"글이":18805,"흑자":18806,"자신에게":18807,"만들어야":18808,"남성이":18809,"버티":18810,"겪은":18811,"방탄":18812,"코트":18813,"(?)":18814,"위험한":18815,"3인":18816,"작품으로":18817,"약물":18818,"위치를":18819,"후에도":18820,"아르바이":18821,"4년간":18822,"차례로":18823,"여부는":18824,"호르":18825,"달성했다":18826,"균형을":18827,"박수":18828,"웨딩":18829,"르트":18830,"마인":18831,"얻는":18832,"운동이":18833,"관점에서":18834,"유나이":18835,"치과":18836,"직접적인":18837,"발이":18838,"민간인":18839,"아리랑":18840,"적자를":18841,"보이스":18842,"슬림":18843,"해병":18844,"배우는":18845,"졸업한":18846,">,":18847,"담합":18848,"서둘러":18849,"쾌적한":18850,"성능을":18851,"kt":18852,"팀과":18853,"으로서의":18854,"경관":18855,"관장":18856,"테니스":18857,"하길":18858,"가파":18859,"간단한":18860,"이경":18861,"성황":18862,"들어갔":18863,"프로축구":18864,"내년에는":18865,"장면이":18866,"다행히":18867,"살균":18868,"징수":18869,"크레":18870,"태도":18871,"공이":18872,"실의":18873,"조는":18874,"함은":18875,"회전":18876,"전쟁을":18877,"박인":18878,"왕복":18879,"한계를":18880,"끼를":18881,"유럽의":18882,"미스":18883,"작성한":18884,"대상에서":18885,"시작된다":18886,"전반적인":18887,"추첨을":18888,"더스":18889,"집은":18890,"절차에":18891,"고려한":18892,"늦은":18893,"배분":18894,"이광":18895,"시설의":18896,"해외에서":18897,"정권이":18898,"대안을":18899,"사냥":18900,"죽은":18901,"4월부터":18902,"서귀":18903,"예의":18904,"증여":18905,"포스터":18906,"시간과":18907,"학적":18908,"처음부터":18909,"두천":18910,"론칭":18911,"에다":18912,"연수원":18913,"전문가들이":18914,"2021년":18915,"오던":18916,"처방":18917,"통은":18918,"구자":18919,"펼친":18920,"국민들이":18921,"국토부는":18922,"출전한":18923,"사료":18924,"소중":18925,"손잡고":18926,"파산":18927,"영향력을":18928,"선보이며":18929,"이곳에":18930,"발생하고":18931,"사장을":18932,"성범죄":18933,"홈플러스":18934,"독재":18935,"저금리":18936,"준비에":18937,"유치에":18938,"과다":18939,"프는":18940,"삼고":18941,"지원은":18942,"전국에":18943,"브리핑에서":18944,"러닝":18945,"승마":18946,"여야가":18947,"유승민":18948,"매장에서":18949,"더민주":18950,"확정했다":18951,"ER":18952,"고객들에게":18953,"공화당":18954,"오해":18955,"사이드":18956,"자산을":18957,"하나를":18958,"교류를":18959,"팽팽":18960,"공급을":18961,"루미":18962,"바깥":18963,"조현":18964,"영재":18965,"태어나":18966,"불과한":18967,"상무는":18968,"스톱":18969,"텐데":18970,"들어온":18971,"꼼꼼히":18972,"계곡":18973,"확대하는":18974,"체육회":18975,"재판을":18976,"치안":18977,"50만원":18978,"단체의":18979,"The":18980,"vs":18981,"도매":18982,"영토":18983,"추진에":18984,"60대":18985,"신기":18986,"우편":18987,"효과적으로":18988,"지급하는":18989,"토론을":18990,"GS칼":18991,"공학과":18992,"이끈":18993,"성과가":18994,"중앙회":18995,"만족도":18996,"미스터":18997,"한눈에":18998,"해경":18999,"불가능":19000,"성취":19001,"신차":19002,"시내버스":19003,"경품":19004,"확대에":19005,"역사상":19006,"안전하게":19007,"시설은":19008,"던진":19009,"팬들에게":19010,"업무협약":19011,"구도":19012,"증가할":19013,"성균관":19014,"국고":19015,"아무도":19016,"리우":19017,"좋았다":19018,"이상은":19019,"부산에서":19020,"사건과":19021,"계속해서":19022,"민정수석":19023,"완벽하게":19024,"거든":19025,"득점을":19026,"축적":19027,"일일이":19028,"지원금":19029,"체험할":19030,"학생들":19031,"스러워":19032,"승용":19033,"장치를":19034,"조업":19035,"차림":19036,"그러다":19037,"성남시":19038,"계란":19039,"송금":19040,"체제로":19041,"채소":19042,"친이":19043,"행진을":19044,"졌기":19045,"대표적이다":19046,"고려하면":19047,"다짐했다":19048,"공존":19049,"동두천":19050,"왔지만":19051,"일본과":19052,"금융회사":19053,"던져":19054,"질서":19055,"과열":19056,"이강":19057,"장도":19058,"1990년":19059,"치에":19060,"손해보험":19061,"나뉘":19062,"수자원":19063,"제안한":19064,"3가지":19065,"들께":19066,"문에서":19067,"몰라":19068,"발병":19069,"한쪽":19070,"가능성에":19071,"참여한다":19072,"겁다":19073,"지엠":19074,"미의":19075,"보고를":19076,"오승":19077,"공격수":19078,"카카오톡":19079,"경향이":19080,"여부가":19081,"00원":19082,"에게서":19083,"2승":19084,"BA":19085,"우려도":19086,"선언한":19087,"오래된":19088,"신속하게":19089,"걸림":19090,"박재":19091,"버거":19092,"브라운":19093,"것만":19094,"원자재":19095,"자유무역협정":19096,"세트를":19097,"협력업체":19098,"떠났다":19099,"인생을":19100,"시청자들의":19101,"기본적인":19102,"스타일링":19103,"강의를":19104,"유진":19105,"193":19106,"돕고":19107,"염려":19108,"퇴임":19109,"하루에":19110,"매일경제":19111,"세븐":19112,"선택을":19113,"희망하는":19114,"기대할":19115,"언론의":19116,"렌즈":19117,"반납":19118,"보름":19119,"비준":19120,"후보자의":19121,"언급한":19122,"노란":19123,"늘면서":19124,"사운드":19125,"악취":19126,"일원":19127,"15분":19128,"과시":19129,"날짜":19130,"불가능한":19131,"악성":19132,"어떨":19133,"장터":19134,"후의":19135,"모레":19136,"질랜드":19137,"차원":19138,"표명":19139,"신조":19140,"열리고":19141,"온갖":19142,"안전성":19143,"40년":19144,"캐릭터를":19145,"위원회와":19146,"고심":19147,"일반인":19148,"어릴":19149,"영진":19150,"오가":19151,"뉴질랜드":19152,"상이다":19153,"초를":19154,"가구로":19155,"채널을":19156,"고맙":19157,"롭고":19158,"매니저":19159,"마블":19160,"습관":19161,"까닭":19162,"확신":19163,"일반적인":19164,"나눈":19165,"요인으로":19166,"커다":19167,"근무하는":19168,"반해":19169,"초고":19170,"계약이":19171,"신청할":19172,"라운드에서":19173,"MR":19174,"lo":19175,"업무에":19176,"개그맨":19177,"ab":19178,"와도":19179,"이원":19180,"자외":19181,"표가":19182,"느낀다":19183,"역과":19184,"지난해에":19185,"독한":19186,"노트북":19187,"닥터":19188,"맛집":19189,"의견도":19190,"방식은":19191,"편안한":19192,"정선":19193,"축제가":19194,"휴가를":19195,"번호를":19196,"하러":19197,"제도는":19198,"너무나":19199,"아세안":19200,"알코":19201,"위헌":19202,"40만":19203,"아닐까":19204,"YT":19205,"사라진":19206,"9억":19207,"내세워":19208,"전술":19209,"교육청이":19210,"잦은":19211,"관해":19212,"말았다":19213,"국가를":19214,"미터":19215,"부른":19216,"원고":19217,"충주":19218,"원활한":19219,"올시즌":19220,"자들과":19221,"공급이":19222,"미드필":19223,")-":19224,"이승엽":19225,"파이낸":19226,"가계부채":19227,"서귀포":19228,"종로구":19229,"개선이":19230,"아마존":19231,"리콜":19232,"처음에는":19233,"행사에서":19234,"육성을":19235,"가량의":19236,"박지원":19237,"적었다":19238,"시설로":19239,"교육감은":19240,"전제":19241,"종일":19242,"주한미":19243,"카지노":19244,"폭풍":19245,"se":19246,"민관":19247,"총회에서":19248,"품격":19249,"몰고":19250,"컴백":19251,"발언은":19252,"내세운":19253,"비한":19254,"시스코":19255,"사령탑":19256,"구성을":19257,"진실을":19258,"협력사":19259,"빚을":19260,"인형":19261,"임이":19262,"러리":19263,"문에":19264,"총회를":19265,"컴퍼니":19266,"방울":19267,"양자":19268,"결과다":19269,"골로":19270,"귀가":19271,"여성을":19272,"환자를":19273,"라의":19274,"북도":19275,"이어갈":19276,"생각에":19277,"뛰는":19278,"치명":19279,"하청":19280,"제재를":19281,"어울리는":19282,"금고":19283,"읽어":19284,"공정위":19285,"요청을":19286,"브랜드의":19287,"항소심":19288,"급한":19289,"단어":19290,"영농":19291,"오디션":19292,"한국시리즈":19293,"있나":19294,"야드":19295,"받았다고":19296,"아들을":19297,"수출입":19298,"1980년대":19299,"리바운드":19300,"5명이":19301,"리비아":19302,"본질":19303,"평일":19304,"호와":19305,"역세권":19306,"보류":19307,"블리":19308,"연중":19309,"주파":19310,"6자회담":19311,"입금":19312,"위치해":19313,"텃밭":19314,"후보에":19315,"순찰":19316,"시의원":19317,"지속될":19318,"모델이":19319,"실패했다":19320,"예정이라고":19321,"영화가":19322,"강력히":19323,"우정":19324,"유감":19325,"장점이":19326,"졌을":19327,"이틀간":19328,"더했다":19329,"마가":19330,"직원들은":19331,"분양가":19332,"스레":19333,"집안":19334,"김은":19335,"우기":19336,"체결한":19337,"인프라를":19338,"아마추어":19339,"MD":19340,"맛과":19341,"방에서":19342,"한동안":19343,"냉장고":19344,"OLED":19345,"방문을":19346,"확정된":19347,"협의회는":19348,"내용이다":19349,"대가로":19350,"단절":19351,"동력을":19352,"시간대":19353,"추억을":19354,"계단":19355,"던졌다":19356,"비트":19357,"현지에서":19358,"시켜야":19359,"경원":19360,"김창":19361,"시일":19362,"문화적":19363,"필요할":19364,"증액":19365,"걸리는":19366,"실버":19367,"았을":19368,"해산":19369,"그러자":19370,"결정하는":19371,"무늬":19372,"만들겠다":19373,"적격":19374,"헌신":19375,"준비가":19376,"재판에":19377,"마이클":19378,"레알":19379,"출퇴근":19380,"갈라":19381,"선원":19382,"4층":19383,"성으로":19384,"제보":19385,"기적":19386,"분해":19387,"지식을":19388,"출구":19389,"대통령에":19390,"아버지는":19391,"모로":19392,"태권도":19393,"사이트를":19394,"법인세":19395,"알코올":19396,"밀하게":19397,"불공정":19398,"정해진":19399,"높인":19400,"생겼":19401,"성희":19402,"토종":19403,"65세":19404,"나들이":19405,"art":19406,"유동성":19407,"의사가":19408,"탈당":19409,"타이거":19410,"동대문":19411,"앤드":19412,"사용을":19413,"교수와":19414,"교통안전":19415,"펀드를":19416,"높아질":19417,"터져":19418,"가끔":19419,"납치":19420,"축제는":19421,"입장에서는":19422,"유명하다":19423,"급감":19424,"기용":19425,"달할":19426,"폐업":19427,"원인은":19428,"안드로이드":19429,"다녔":19430,"체중":19431,"후임":19432,
[...]
